{
  "version": "1.0",
  "truncation": null,
  "padding": null,
  "added_tokens": [
    {
      "id": 0,
      "content": "<s>",
      "single_word": false,
      "lstrip": false,
      "rstrip": false,
      "normalized": false,
      "special": true
    },
    {
      "id": 1,
      "content": "<pad>",
      "single_word": false,
      "lstrip": false,
      "rstrip": false,
      "normalized": false,
      "special": true
    },
    {
      "id": 2,
      "content": "</s>",
      "single_word": false,
      "lstrip": false,
      "rstrip": false,
      "normalized": false,
      "special": true
    },
    {
      "id": 3,
      "content": "<unk>",
      "single_word": false,
      "lstrip": false,
      "rstrip": false,
      "normalized": false,
      "special": true
    },
    {
      "id": 4,
      "content": "<cls>",
      "single_word": false,
      "lstrip": false,
      "rstrip": false,
      "normalized": false,
      "special": true
    },
    {
      "id": 5,
      "content": "<sep>",
      "single_word": false,
      "lstrip": false,
      "rstrip": false,
      "normalized": false,
      "special": true
    },
    {
      "id": 6,
      "content": "<mask>",
      "single_word": false,
      "lstrip": false,
      "rstrip": false,
      "normalized": false,
      "special": true
    }
  ],
  "normalizer": {
    "type": "NFKC"
  },
  "pre_tokenizer": {
    "type": "Metaspace",
    "replacement": "▁",
    "add_prefix_space": true,
    "prepend_scheme": "always"
  },
  "post_processor": null,
  "decoder": {
    "type": "Metaspace",
    "replacement": "▁",
    "add_prefix_space": true,
    "prepend_scheme": "always"
  },
  "model": {
    "type": "BPE",
    "dropout": null,
    "unk_token": "<unk>",
    "continuing_subword_prefix": null,
    "end_of_word_suffix": null,
    "fuse_unk": false,
    "byte_fallback": false,
    "vocab": {
      "<s>": 0,
      "<pad>": 1,
      "</s>": 2,
      "<unk>": 3,
      "<cls>": 4,
      "<sep>": 5,
      "<mask>": 6,
      "\n": 7,
      "!": 8,
      "\"": 9,
      "$": 10,
      "%": 11,
      "&": 12,
      "'": 13,
      "(": 14,
      ")": 15,
      "+": 16,
      ",": 17,
      "-": 18,
      ".": 19,
      "/": 20,
      "0": 21,
      "1": 22,
      "2": 23,
      "3": 24,
      "4": 25,
      "5": 26,
      "6": 27,
      "7": 28,
      "8": 29,
      "9": 30,
      ":": 31,
      ";": 32,
      "?": 33,
      "@": 34,
      "A": 35,
      "B": 36,
      "C": 37,
      "D": 38,
      "E": 39,
      "F": 40,
      "G": 41,
      "H": 42,
      "I": 43,
      "J": 44,
      "K": 45,
      "L": 46,
      "M": 47,
      "N": 48,
      "O": 49,
      "P": 50,
      "Q": 51,
      "R": 52,
      "S": 53,
      "T": 54,
      "U": 55,
      "V": 56,
      "W": 57,
      "X": 58,
      "Y": 59,
      "Z": 60,
      "a": 61,
      "b": 62,
      "c": 63,
      "d": 64,
      "e": 65,
      "f": 66,
      "g": 67,
      "h": 68,
      "i": 69,
      "j": 70,
      "k": 71,
      "l": 72,
      "m": 73,
      "n": 74,
      "o": 75,
      "p": 76,
      "q": 77,
      "r": 78,
      "s": 79,
      "t": 80,
      "u": 81,
      "v": 82,
      "w": 83,
      "x": 84,
      "y": 85,
      "z": 86,
      "«": 87,
      "°": 88,
      "»": 89,
      "à": 90,
      "é": 91,
      "ê": 92,
      "ë": 93,
      "ï": 94,
      "ó": 95,
      "ú": 96,
      "ü": 97,
      "č": 98,
      "́": 99,
      "Ё": 100,
      "А": 101,
      "Б": 102,
      "В": 103,
      "Г": 104,
      "Д": 105,
      "Е": 106,
      "Ж": 107,
      "З": 108,
      "И": 109,
      "Й": 110,
      "К": 111,
      "Л": 112,
      "М": 113,
      "Н": 114,
      "О": 115,
      "П": 116,
      "Р": 117,
      "С": 118,
      "Т": 119,
      "У": 120,
      "Ф": 121,
      "Х": 122,
      "Ц": 123,
      "Ч": 124,
      "Ш": 125,
      "Щ": 126,
      "Э": 127,
      "Ю": 128,
      "Я": 129,
      "а": 130,
      "б": 131,
      "в": 132,
      "г": 133,
      "д": 134,
      "е": 135,
      "ж": 136,
      "з": 137,
      "и": 138,
      "й": 139,
      "к": 140,
      "л": 141,
      "м": 142,
      "н": 143,
      "о": 144,
      "п": 145,
      "р": 146,
      "с": 147,
      "т": 148,
      "у": 149,
      "ф": 150,
      "х": 151,
      "ц": 152,
      "ч": 153,
      "ш": 154,
      "щ": 155,
      "ъ": 156,
      "ы": 157,
      "ь": 158,
      "э": 159,
      "ю": 160,
      "я": 161,
      "ё": 162,
      "​": 163,
      "‎": 164,
      "–": 165,
      "—": 166,
      "‘": 167,
      "’": 168,
      "€": 169,
      "▁": 170,
      ".\n": 171,
      "▁t": 172,
      "▁н": 173,
      "то": 174,
      "ом": 175,
      "▁a": 176,
      "he": 177,
      "▁T": 178,
      "om": 179,
      "▁п": 180,
      "▁w": 181,
      "▁с": 182,
      "ou": 183,
      "▁I": 184,
      "in": 185,
      "▁в": 186,
      "▁Т": 187,
      "re": 188,
      "▁Tom": 189,
      "▁Том": 190,
      "ha": 191,
      "▁s": 192,
      "?\n": 193,
      "▁to": 194,
      "▁d": 195,
      "▁не": 196,
      "ть": 197,
      "on": 198,
      "is": 199,
      "ал": 200,
      "▁m": 201,
      "ve": 202,
      "▁м": 203,
      "▁y": 204,
      "▁b": 205,
      "▁д": 206,
      "ра": 207,
      "▁по": 208,
      "▁ч": 209,
      "▁о": 210,
      "▁you": 211,
      "▁Я": 212,
      "ен": 213,
      "▁c": 214,
      "▁б": 215,
      "те": 216,
      "▁the": 217,
      "го": 218,
      "ed": 219,
      "ing": 220,
      "ри": 221,
      "hat": 222,
      "но": 223,
      "'t": 224,
      "▁l": 225,
      "an": 226,
      "▁з": 227,
      "ро": 228,
      "▁f": 229,
      "▁к": 230,
      "ll": 231,
      "▁что": 232,
      "▁на": 233,
      "ет": 234,
      "ar": 235,
      "ст": 236,
      "it": 237,
      "or": 238,
      "▁М": 239,
      "en": 240,
      "▁g": 241,
      "er": 242,
      "as": 243,
      "ел": 244,
      "▁n": 245,
      "ow": 246,
      "▁ha": 247,
      "▁p": 248,
      "▁э": 249,
      "▁у": 250,
      "ся": 251,
      "на": 252,
      "e.\n": 253,
      "▁is": 254,
      "ил": 255,
      "ко": 256,
      "id": 257,
      "во": 258,
      "▁that": 259,
      "▁h": 260,
      "ать": 261,
      "▁W": 262,
      "ре": 263,
      "▁th": 264,
      "ни": 265,
      "es": 266,
      "▁это": 267,
      "▁и": 268,
      "не": 269,
      "▁т": 270,
      "хо": 271,
      "ка": 272,
      "▁бы": 273,
      "▁he": 274,
      "▁do": 275,
      "ot": 276,
      "n't": 277,
      "▁o": 278,
      "да": 279,
      "▁be": 280,
      "▁В": 281,
      "ли": 282,
      "ем": 283,
      "'s": 284,
      "ay": 285,
      "▁in": 286,
      "ld": 287,
      "at": 288,
      "▁an": 289,
      "▁за": 290,
      "st": 291,
      "et": 292,
      "▁k": 293,
      "▁was": 294,
      "▁I'": 295,
      "ло": 296,
      "ль": 297,
      "▁M": 298,
      "▁е": 299,
      "▁хо": 300,
      "▁e": 301,
      "сь": 302,
      "ver": 303,
      "▁of": 304,
      "s.\n": 305,
      "▁мо": 306,
      "ер": 307,
      "и.\n": 308,
      "ак": 309,
      "▁ра": 310,
      "on't": 311,
      "▁О": 312,
      "▁вы": 313,
      "ит": 314,
      "▁The": 315,
      "дел": 316,
      "ва": 317,
      "▁kn": 318,
      "le": 319,
      "ла": 320,
      "y.\n": 321,
      "де": 322,
      "ам": 323,
      "▁u": 324,
      "▁Н": 325,
      "▁go": 326,
      "у.\n": 327,
      "▁H": 328,
      "▁on": 329,
      "▁я": 330,
      "im": 331,
      "ant": 332,
      "ны": 333,
      "▁li": 334,
      "▁Mar": 335,
      "▁we": 336,
      "ic": 337,
      "▁for": 338,
      "ти": 339,
      "gh": 340,
      "▁про": 341,
      "▁st": 342,
      "▁Мэ": 343,
      "▁Мэри": 344,
      "▁me": 345,
      "е.\n": 346,
      "ke": 347,
      "ас": 348,
      "▁know": 349,
      "▁re": 350,
      "▁ne": 351,
      "▁did": 352,
      "▁have": 353,
      "▁П": 354,
      "▁го": 355,
      "▁Э": 356,
      "а.\n": 357,
      "▁до": 358,
      "уд": 359,
      "ch": 360,
      "al": 361,
      "▁want": 362,
      "каз": 363,
      "▁it": 364,
      "▁D": 365,
      "ить": 366,
      "ум": 367,
      "бо": 368,
      "▁We": 369,
      "▁при": 370,
      "▁don't": 371,
      "ould": 372,
      "▁зна": 373,
      "ght": 374,
      "▁Это": 375,
      "▁л": 376,
      "еня": 377,
      "▁со": 378,
      "ad": 379,
      "же": 380,
      "oo": 381,
      "ень": 382,
      "▁ко": 383,
      "ri": 384,
      "▁Mary": 385,
      "▁Вы": 386,
      "▁I'm": 387,
      "out": 388,
      "ру": 389,
      "▁вс": 390,
      "▁Y": 391,
      "▁У": 392,
      "ink": 393,
      "ю,": 394,
      "▁You": 395,
      "▁мне": 396,
      "сто": 397,
      "very": 398,
      "до": 399,
      "▁меня": 400,
      "▁ни": 401,
      "▁this": 402,
      "▁от": 403,
      "гда": 404,
      "▁К": 405,
      "ать.\n": 406,
      "ill": 407,
      "▁сдел": 408,
      "его": 409,
      "▁те": 410,
      "▁not": 411,
      "se": 412,
      "ing.\n": 413,
      "▁то": 414,
      "▁Мы": 415,
      "▁can": 416,
      "й.\n": 417,
      "▁my": 418,
      "ith": 419,
      "ди": 420,
      "ше": 421,
      "ле": 422,
      "▁with": 423,
      "▁ж": 424,
      "▁think": 425,
      "▁сказ": 426,
      "ал,": 427,
      "▁По": 428,
      "ся.\n": 429,
      "her": 430,
      "all": 431,
      "ня": 432,
      "та": 433,
      "бы": 434,
      "▁во": 435,
      "▁Тома": 436,
      "ro": 437,
      "бе": 438,
      "али": 439,
      "ени": 440,
      "мо": 441,
      "▁It": 442,
      "▁and": 443,
      "рав": 444,
      "ent": 445,
      "▁С": 446,
      "ome": 447,
      "ac": 448,
      "▁your": 449,
      "▁He": 450,
      "▁as": 451,
      "▁didn't": 452,
      "ut": 453,
      "▁бо": 454,
      "▁are": 455,
      "▁his": 456,
      "▁A": 457,
      "ста": 458,
      "ну": 459,
      "ly": 460,
      "▁S": 461,
      "ir": 462,
      "one": 463,
      "▁хоч": 464,
      "ви": 465,
      "▁like": 466,
      "▁at": 467,
      "ши": 468,
      "▁Д": 469,
      "pp": 470,
      "am": 471,
      "ter": 472,
      "ума": 473,
      "▁ab": 474,
      "ust": 475,
      "▁se": 476,
      "жно": 477,
      "▁any": 478,
      "ion": 479,
      "уч": 480,
      "▁what": 481,
      "ки": 482,
      "шь": 483,
      "ost": 484,
      "вори": 485,
      "ему": 486,
      "ed.\n": 487,
      "т.\n": 488,
      "сть": 489,
      "ве": 490,
      "▁su": 491,
      "ho": 492,
      "ля": 493,
      "ей": 494,
      "▁оч": 495,
      "▁дел": 496,
      "ook": 497,
      "▁that.\n": 498,
      "▁has": 499,
      "▁Он": 500,
      "re.\n": 501,
      "по": 502,
      "▁al": 503,
      "'re": 504,
      "od": 505,
      "▁Не": 506,
      "▁об": 507,
      "nd": 508,
      "▁Тому": 509,
      "▁Б": 510,
      "омо": 511,
      "▁сво": 512,
      "▁очень": 513,
      "я.\n": 514,
      "▁te": 515,
      "th": 516,
      "ain": 517,
      "▁был": 518,
      "▁sa": 519,
      "лько": 520,
      "▁из": 521,
      "▁Ты": 522,
      "ay.\n": 523,
      "ры": 524,
      "▁как": 525,
      "▁Do": 526,
      "▁Tom.\n": 527,
      "▁так": 528,
      "▁буд": 529,
      "▁wor": 530,
      "▁j": 531,
      "▁Мне": 532,
      "▁ты": 533,
      "if": 534,
      "▁sh": 535,
      "▁What": 536,
      "▁раз": 537,
      "▁tr": 538,
      "▁г": 539,
      "▁но": 540,
      "▁about": 541,
      "ak": 542,
      "▁мог": 543,
      "op": 544,
      "ере": 545,
      "ет.\n": 546,
      "ren": 547,
      "▁r": 548,
      "d.\n": 549,
      "er.\n": 550,
      "▁le": 551,
      "ду": 552,
      "вер": 553,
      "▁чтобы": 554,
      "▁лю": 555,
      "ного": 556,
      "▁B": 557,
      "▁does": 558,
      "▁need": 559,
      "▁ве": 560,
      "ы.\n": 561,
      "ct": 562,
      "han": 563,
      "▁tim": 564,
      "▁было": 565,
      "▁говори": 566,
      "▁very": 567,
      "ю.\n": 568,
      "или": 569,
      "▁going": 570,
      "ом.\n": 571,
      "ur": 572,
      "м.\n": 573,
      "k.\n": 574,
      "hy": 575,
      "ете": 576,
      "▁ну": 577,
      "▁all": 578,
      "▁so": 579,
      "▁боль": 580,
      "▁дума": 581,
      "▁pl": 582,
      "▁ви": 583,
      "▁Th": 584,
      "ку": 585,
      "▁will": 586,
      "про": 587,
      "ал.\n": 588,
      "ря": 589,
      "чи": 590,
      "▁you.\n": 591,
      "ave": 592,
      "lp": 593,
      "▁ка": 594,
      "но.\n": 595,
      "▁C": 596,
      "▁Бо": 597,
      "▁помо": 598,
      "▁рабо": 599,
      "ме": 600,
      "▁bu": 601,
      "▁him": 602,
      "ong": 603,
      "▁вам": 604,
      "▁help": 605,
      "t.\n": 606,
      "▁get": 607,
      "il": 608,
      "▁me.\n": 609,
      "жи": 610,
      "бя": 611,
      "▁This": 612,
      "▁а": 613,
      "ран": 614,
      "▁had": 615,
      "ake": 616,
      "▁дол": 617,
      "▁ку": 618,
      "▁ещ": 619,
      "▁ре": 620,
      "▁sp": 621,
      "ive": 622,
      "▁us": 623,
      "▁Ч": 624,
      "▁told": 625,
      "к.\n": 626,
      "▁все": 627,
      "ore": 628,
      "ёт": 629,
      "▁Мэри.\n": 630,
      "end": 631,
      "▁ещё": 632,
      "es.\n": 633,
      "▁ex": 634,
      "ally": 635,
      "▁есть": 636,
      "жет": 637,
      "ма": 638,
      "▁That": 639,
      "ть.\n": 640,
      "▁were": 641,
      "▁It's": 642,
      "▁ф": 643,
      "вал": 644,
      "alk": 645,
      "че": 646,
      "▁happ": 647,
      "сь.\n": 648,
      "▁ш": 649,
      "ind": 650,
      "▁see": 651,
      "▁whe": 652,
      "▁всё": 653,
      "▁хоте": 654,
      "un": 655,
      "ought": 656,
      "▁хочу": 657,
      "▁How": 658,
      "other": 659,
      "▁She": 660,
      "oston": 661,
      "▁Boston": 662,
      "rom": 663,
      "тель": 664,
      "▁сл": 665,
      "▁Босто": 666,
      "ep": 667,
      "▁он": 668,
      "▁said": 669,
      "чему": 670,
      "▁пос": 671,
      "▁up": 672,
      "▁ст": 673,
      "рем": 674,
      "ком": 675,
      "лю": 676,
      "▁doesn't": 677,
      "▁зн": 678,
      "ul": 679,
      "▁I'll": 680,
      "▁can't": 681,
      "▁out": 682,
      "▁Мо": 683,
      "▁one": 684,
      "▁се": 685,
      "▁would": 686,
      "▁дру": 687,
      "жд": 688,
      "га": 689,
      "▁пре": 690,
      "▁На": 691,
      "▁ag": 692,
      "▁знаю,": 693,
      "▁вас": 694,
      "▁F": 695,
      "прос": 696,
      "▁сп": 697,
      "▁люб": 698,
      "вы": 699,
      "▁I've": 700,
      "-то": 701,
      "н.\n": 702,
      "колько": 703,
      "ight": 704,
      "qu": 705,
      "ез": 706,
      "▁под": 707,
      "▁нико": 708,
      "▁too": 709,
      "▁-": 710,
      "▁нас": 711,
      "▁tell": 712,
      "ow.\n": 713,
      "▁Она": 714,
      "▁нам": 715,
      "▁хоро": 716,
      "▁сказал": 717,
      "ёл": 718,
      "▁Why": 719,
      "▁every": 720,
      "уз": 721,
      "▁Тома.\n": 722,
      "▁mu": 723,
      "ный": 724,
      "el": 725,
      "йте": 726,
      "вать": 727,
      "▁isn't": 728,
      "▁мы": 729,
      "жал": 730,
      "▁look": 731,
      "▁его": 732,
      "ис": 733,
      "ь.\n": 734,
      "▁нужно": 735,
      "▁com": 736,
      "ree": 737,
      "▁never": 738,
      "▁зде": 739,
      "ked": 740,
      "▁been": 741,
      "▁no": 742,
      "▁They": 743,
      "буд": 744,
      "est": 745,
      "ays": 746,
      "ится": 747,
      "ход": 748,
      "our": 749,
      "▁should": 750,
      "ag": 751,
      "▁этого": 752,
      "ки.\n": 753,
      "▁уже": 754,
      "▁L": 755,
      "▁it.\n": 756,
      "hing": 757,
      "▁Е": 758,
      "ешь": 759,
      "▁думаю,": 760,
      "▁Tom's": 761,
      "ан": 762,
      "ву": 763,
      "ast": 764,
      "ame": 765,
      "▁врем": 766,
      "аль": 767,
      "▁lo": 768,
      "▁ма": 769,
      "▁talk": 770,
      "▁могу": 771,
      "▁de": 772,
      "▁Что": 773,
      "ет,": 774,
      "▁good": 775,
      "red": 776,
      "ча": 777,
      "▁Mary.\n": 778,
      "▁got": 779,
      "в.\n": 780,
      "▁who": 781,
      "ce": 782,
      "▁будет": 783,
      "▁could": 784,
      "and": 785,
      "▁from": 786,
      "ol": 787,
      "▁пере": 788,
      "▁никогда": 789,
      "си": 790,
      "'ll": 791,
      "▁here": 792,
      "▁сто": 793,
      "ist": 794,
      "ту": 795,
      "▁жи": 796,
      "гра": 797,
      "▁хотел": 798,
      "▁Они": 799,
      "▁Whe": 800,
      "day.\n": 801,
      "▁P": 802,
      "▁больше": 803,
      "▁her": 804,
      "▁man": 805,
      "дня": 806,
      "▁N": 807,
      "lf": 808,
      "▁than": 809,
      "вст": 810,
      "сти": 811,
      "ело": 812,
      "▁долж": 813,
      "▁ли": 814,
      "▁соб": 815,
      "▁pro": 816,
      "▁happen": 817,
      "ги": 818,
      "ала": 819,
      "▁сказал,": 820,
      "юсь": 821,
      "▁надо": 822,
      "▁Did": 823,
      "егодня": 824,
      "▁just": 825,
      "со": 826,
      "▁этом": 827,
      "▁fe": 828,
      "ble": 829,
      "▁some": 830,
      "ранц": 831,
      "будь": 832,
      "▁My": 833,
      "▁There": 834,
      "art": 835,
      "'ve": 836,
      "ски": 837,
      "omet": 838,
      "ша": 839,
      "▁qu": 840,
      "▁день": 841,
      "▁когда": 842,
      "▁три": 843,
      "▁смо": 844,
      "▁дом": 845,
      "▁рас": 846,
      "rench": 847,
      "▁E": 848,
      "▁French": 849,
      "сли": 850,
      "▁Почему": 851,
      "ie": 852,
      "ку.\n": 853,
      "ранцуз": 854,
      "зо": 855,
      "▁Don't": 856,
      "▁прав": 857,
      "▁time": 858,
      "▁много": 859,
      "став": 860,
      "▁much": 861,
      "ех": 862,
      "thing": 863,
      "▁car": 864,
      "-ни": 865,
      "bod": 866,
      "▁Как": 867,
      "ack": 868,
      "▁by": 869,
      "▁con": 870,
      "ется": 871,
      "os": 872,
      "ила": 873,
      "ют": 874,
      "▁ме": 875,
      "le.\n": 876,
      "-нибудь": 877,
      "▁ком": 878,
      "ци": 879,
      "чего": 880,
      "ion.\n": 881,
      "▁нрав": 882,
      "▁А": 883,
      "fe": 884,
      "▁work": 885,
      "▁куп": 886,
      "▁пла": 887,
      "▁час": 888,
      "за": 889,
      "▁здесь": 890,
      "щи": 891,
      "▁З": 892,
      "▁тебя": 893,
      "▁really": 894,
      "▁сам": 895,
      "ной": 896,
      "orr": 897,
      "▁eat": 898,
      "▁знал,": 899,
      "▁how": 900,
      "на.\n": 901,
      "leas": 902,
      "час": 903,
      "▁wr": 904,
      "тра": 905,
      "▁быть": 906,
      "▁somet": 907,
      "▁int": 908,
      "▁ва": 909,
      "▁here.\n": 910,
      "▁cl": 911,
      "au": 912,
      "▁Is": 913,
      "▁thought": 914,
      "ят": 915,
      "▁won't": 916,
      "▁Are": 917,
      "ig": 918,
      "▁co": 919,
      "те.\n": 920,
      "▁тебе": 921,
      "body": 922,
      "ear": 923,
      "ous": 924,
      "ако": 925,
      "шёл": 926,
      "ми": 927,
      "▁дум": 928,
      "▁И": 929,
      "шо": 930,
      "▁ar": 931,
      "се": 932,
      "ём": 933,
      "ap": 934,
      "▁af": 935,
      "▁сделать.\n": 936,
      "!\n": 937,
      "▁может": 938,
      "hi": 939,
      "ар": 940,
      "▁three": 941,
      "ound": 942,
      "▁работ": 943,
      "▁lot": 944,
      "▁сегодня": 945,
      "ка.\n": 946,
      "▁ro": 947,
      "own": 948,
      "ait": 949,
      "et.\n": 950,
      "ут": 951,
      "res": 952,
      "▁ri": 953,
      "mb": 954,
      "ish": 955,
      "▁мне,": 956,
      "▁пол": 957,
      "▁but": 958,
      "▁if": 959,
      "ило": 960,
      "▁Can": 961,
      "▁ста": 962,
      "уй": 963,
      "▁wasn't": 964,
      "▁spe": 965,
      "▁v": 966,
      "▁поз": 967,
      "ice": 968,
      "▁была": 969,
      "▁there": 970,
      "▁Томом": 971,
      "a.\n": 972,
      "ab": 973,
      "ить.\n": 974,
      "▁ро": 975,
      "▁Да": 976,
      "иль": 977,
      "▁Г": 978,
      "▁off": 979,
      "йти": 980,
      "ide": 981,
      "чно": 982,
      "▁read": 983,
      "▁live": 984,
      "▁вер": 985,
      "рали": 986,
      "▁long": 987,
      "▁exp": 988,
      "▁сделать": 989,
      "ейчас": 990,
      "▁That's": 991,
      "вет": 992,
      "▁come": 993,
      "нима": 994,
      "▁пи": 995,
      "▁ничего": 996,
      "read": 997,
      "жалуй": 998,
      "▁Let": 999,
      "▁still": 1000,
      "▁Ко": 1001,
      "▁wait": 1002,
      "are": 1003,
      "▁dr": 1004,
      "▁book": 1005,
      "▁You're": 1006,
      "▁un": 1007,
      "▁видел": 1008,
      "▁хочет": 1009,
      "self": 1010,
      "▁more": 1011,
      "▁stu": 1012,
      "▁маши": 1013,
      "▁кто": 1014,
      "не.\n": 1015,
      "▁од": 1016,
      "ect": 1017,
      "▁mone": 1018,
      "му": 1019,
      "ers": 1020,
      "▁для": 1021,
      "х.\n": 1022,
      "кры": 1023,
      "ался": 1024,
      "ew": 1025,
      "▁де": 1026,
      "ate": 1027,
      "▁wanted": 1028,
      "us": 1029,
      "▁fri": 1030,
      "▁year": 1031,
      "▁кни": 1032,
      "об": 1033,
      "ite": 1034,
      "▁сделал": 1035,
      "ain.\n": 1036,
      "▁love": 1037,
      "чь": 1038,
      "▁O": 1039,
      "nder": 1040,
      "кто": 1041,
      "рес": 1042,
      "▁нет": 1043,
      "ven": 1044,
      "лу": 1045,
      "па": 1046,
      "втра": 1047,
      "▁чем": 1048,
      "▁Дума": 1049,
      "ес": 1050,
      "▁pe": 1051,
      "itt": 1052,
      "дите": 1053,
      "им": 1054,
      "▁Р": 1055,
      "гу": 1056,
      "▁br": 1057,
      "но,": 1058,
      "ali": 1059,
      "▁дела": 1060,
      "lease": 1061,
      "▁en": 1062,
      "ился": 1063,
      "▁эти": 1064,
      "▁сле": 1065,
      "▁or": 1066,
      "ен.\n": 1067,
      "нь": 1068,
      "ess": 1069,
      "шло": 1070,
      "▁wat": 1071,
      "нул": 1072,
      "▁take": 1073,
      "ather": 1074,
      "ry": 1075,
      "▁по-": 1076,
      "▁Boston.\n": 1077,
      "▁I'd": 1078,
      "▁new": 1079,
      "▁under": 1080,
      "▁Who": 1081,
      "▁bet": 1082,
      "▁when": 1083,
      "▁Во": 1084,
      "▁say": 1085,
      "on.\n": 1086,
      "▁last": 1087,
      "▁right": 1088,
      "m.\n": 1089,
      "one.\n": 1090,
      "▁да": 1091,
      "▁её": 1092,
      "ort": 1093,
      "▁time.\n": 1094,
      "▁asked": 1095,
      "▁We're": 1096,
      "ало": 1097,
      "▁ему": 1098,
      "ool": 1099,
      "лож": 1100,
      "▁луч": 1101,
      "ck": 1102,
      "ways": 1103,
      "▁speak": 1104,
      "▁call": 1105,
      "▁только": 1106,
      "бл": 1107,
      "▁always": 1108,
      "ried": 1109,
      "▁only": 1110,
      "▁alread": 1111,
      "▁play": 1112,
      "▁jo": 1113,
      "▁ру": 1114,
      "ый": 1115,
      "▁sm": 1116,
      "▁сейчас": 1117,
      "▁Вам": 1118,
      "▁Кто": 1119,
      "пе": 1120,
      "▁knew": 1121,
      "▁ц": 1122,
      "▁просто": 1123,
      "дин": 1124,
      "▁hear": 1125,
      "▁были": 1126,
      "▁hop": 1127,
      "▁расс": 1128,
      "ные": 1129,
      "дит": 1130,
      "говори": 1131,
      "▁now.\n": 1132,
      "▁bus": 1133,
      "ду.\n": 1134,
      "▁back": 1135,
      "▁Where": 1136,
      "жу": 1137,
      "да.\n": 1138,
      "▁J": 1139,
      "▁our": 1140,
      "▁plan": 1141,
      "стро": 1142,
      "▁\"": 1143,
      "ass": 1144,
      "▁жен": 1145,
      "ыш": 1146,
      "ств": 1147,
      "ustr": 1148,
      "▁Ни": 1149,
      "▁leave": 1150,
      "▁you?\n": 1151,
      "жа": 1152,
      "мен": 1153,
      "тельно": 1154,
      "▁пред": 1155,
      "▁думал,": 1156,
      "пу": 1157,
      "▁mad": 1158,
      "ная": 1159,
      "▁No": 1160,
      "▁something": 1161,
      "ore.\n": 1162,
      "▁old": 1163,
      "▁knows": 1164,
      "▁home": 1165,
      "ем.\n": 1166,
      "▁him.\n": 1167,
      "ent.\n": 1168,
      "ustrali": 1169,
      "▁let": 1170,
      "▁Australi": 1171,
      "встрали": 1172,
      "▁хорошо": 1173,
      "▁тво": 1174,
      "urn": 1175,
      "▁Австрали": 1176,
      "▁реш": 1177,
      "▁кото": 1178,
      "▁peop": 1179,
      "ang": 1180,
      "ение": 1181,
      "▁where": 1182,
      "▁bel": 1183,
      "▁buy": 1184,
      "д.\n": 1185,
      "бу": 1186,
      "▁завтра": 1187,
      "▁many": 1188,
      "▁делать.\n": 1189,
      "нов": 1190,
      "▁Нам": 1191,
      "ach": 1192,
      "▁всегда": 1193,
      "▁this.\n": 1194,
      "▁stay": 1195,
      "▁воз": 1196,
      "чит": 1197,
      "s?\n": 1198,
      "дц": 1199,
      "en.\n": 1200,
      "▁lef": 1201,
      "чера": 1202,
      "шком": 1203,
      "ное": 1204,
      "нте": 1205,
      "▁вст": 1206,
      "cc": 1207,
      "гла": 1208,
      "▁already": 1209,
      "ly.\n": 1210,
      "ег": 1211,
      "hed": 1212,
      "▁Let's": 1213,
      "▁sure": 1214,
      "▁friend": 1215,
      "▁tom": 1216,
      "ng": 1217,
      "hild": 1218,
      "ке.\n": 1219,
      "▁ad": 1220,
      "▁нравится": 1221,
      "ra": 1222,
      "▁х": 1223,
      "тр": 1224,
      "▁win": 1225,
      "▁doing": 1226,
      "▁op": 1227,
      "ond": 1228,
      "юсь,": 1229,
      "ight.\n": 1230,
      "▁Те": 1231,
      "▁find": 1232,
      "▁us.\n": 1233,
      "ick": 1234,
      "▁говорит": 1235,
      "▁chan": 1236,
      "ving": 1237,
      "▁случ": 1238,
      "ство": 1239,
      "▁tomorr": 1240,
      "'d": 1241,
      "▁сли": 1242,
      "or.\n": 1243,
      "▁Please": 1244,
      "прав": 1245,
      "ты": 1246,
      "ение.\n": 1247,
      "▁im": 1248,
      "▁без": 1249,
      "get": 1250,
      "▁she": 1251,
      "▁должен": 1252,
      "▁знает,": 1253,
      "▁room": 1254,
      "▁Думаю,": 1255,
      "▁anything": 1256,
      "▁di": 1257,
      "▁Том.\n": 1258,
      "ell": 1259,
      "▁слишком": 1260,
      "▁do.\n": 1261,
      "ира": 1262,
      "▁better": 1263,
      "ough": 1264,
      "▁нуж": 1265,
      "▁pr": 1266,
      "▁може": 1267,
      "▁child": 1268,
      "аться": 1269,
      "▁—": 1270,
      "▁went": 1271,
      "ть,": 1272,
      "▁хоти": 1273,
      "стви": 1274,
      "▁G": 1275,
      "ба": 1276,
      "▁Tom?\n": 1277,
      "▁ис": 1278,
      "▁Every": 1279,
      "▁нес": 1280,
      "▁bl": 1281,
      "их": 1282,
      "мер": 1283,
      "▁Сколько": 1284,
      "ieve": 1285,
      "▁underst": 1286,
      "ще": 1287,
      "дёт": 1288,
      "▁comp": 1289,
      "▁ус": 1290,
      "leep": 1291,
      "ми.\n": 1292,
      "▁give": 1293,
      "▁today.\n": 1294,
      "▁make": 1295,
      "▁же": 1296,
      "▁друг": 1297,
      "▁чу": 1298,
      "ке": 1299,
      "▁made": 1300,
      "▁заня": 1301,
      "ранцузски": 1302,
      "▁proble": 1303,
      "▁прои": 1304,
      "▁оста": 1305,
      "▁работа": 1306,
      "orn": 1307,
      "▁после": 1308,
      "▁mo": 1309,
      "▁игра": 1310,
      "▁поч": 1311,
      "chool": 1312,
      "л.\n": 1313,
      "▁bo": 1314,
      "▁кра": 1315,
      "м,": 1316,
      "iss": 1317,
      "▁sw": 1318,
      "ил.\n": 1319,
      "▁wee": 1320,
      "▁you're": 1321,
      "▁stud": 1322,
      "нтерес": 1323,
      "ете,": 1324,
      "ce.\n": 1325,
      "ны.\n": 1326,
      "тов": 1327,
      "▁увер": 1328,
      "▁gr": 1329,
      "▁why": 1330,
      "▁school": 1331,
      "▁сдела": 1332,
      "h.\n": 1333,
      "▁min": 1334,
      "▁they": 1335,
      "▁pre": 1336,
      "▁себя": 1337,
      "▁people": 1338,
      "пер": 1339,
      "ниц": 1340,
      "▁эту": 1341,
      "▁там": 1342,
      "▁dec": 1343,
      "▁that?\n": 1344,
      "▁believe": 1345,
      "▁пожалуй": 1346,
      "▁other": 1347,
      "▁вз": 1348,
      "▁где": 1349,
      "▁ask": 1350,
      "▁rem": 1351,
      "ся,": 1352,
      "▁Все": 1353,
      "▁Где": 1354,
      "▁Томом.\n": 1355,
      "▁ту": 1356,
      "дё": 1357,
      "▁Дава": 1358,
      "▁well": 1359,
      "▁делать": 1360,
      "пас": 1361,
      "▁следу": 1362,
      "▁пробл": 1363,
      "▁bef": 1364,
      "▁поговори": 1365,
      "гля": 1366,
      "ять": 1367,
      "▁тако": 1368,
      "▁quest": 1369,
      "▁шко": 1370,
      "вто": 1371,
      "он": 1372,
      "▁aw": 1373,
      "▁over": 1374,
      "ствен": 1375,
      "▁если": 1376,
      "▁Когда": 1377,
      "▁mar": 1378,
      "▁har": 1379,
      "▁ми": 1380,
      "▁вопрос": 1381,
      "▁try": 1382,
      "кон": 1383,
      "▁Про": 1384,
      "▁down": 1385,
      "▁этот": 1386,
      "arn": 1387,
      "▁Том,": 1388,
      "▁pa": 1389,
      "ester": 1390,
      "▁hope": 1391,
      "дал": 1392,
      "▁dog": 1393,
      "вать.\n": 1394,
      "▁За": 1395,
      "▁must": 1396,
      "елове": 1397,
      "▁уверен": 1398,
      "▁French.\n": 1399,
      "▁tw": 1400,
      "▁то,": 1401,
      "ice.\n": 1402,
      "ation": 1403,
      "ранцузс": 1404,
      "▁время": 1405,
      "▁fl": 1406,
      "ит.\n": 1407,
      "▁hand": 1408,
      "▁feel": 1409,
      "▁обе": 1410,
      "кажи": 1411,
      "▁Тому,": 1412,
      "ти.\n": 1413,
      "▁тр": 1414,
      "▁нем": 1415,
      "ten": 1416,
      "кой": 1417,
      "▁кон": 1418,
      "▁теле": 1419,
      "um": 1420,
      "ge": 1421,
      "▁вчера": 1422,
      "▁домо": 1423,
      "ty": 1424,
      "▁нач": 1425,
      "ща": 1426,
      "▁fin": 1427,
      "ome.\n": 1428,
      "▁thing": 1429,
      "▁ост": 1430,
      "▁again.\n": 1431,
      "▁челове": 1432,
      "ели": 1433,
      "▁ke": 1434,
      "просил": 1435,
      "▁When": 1436,
      "▁dis": 1437,
      "пис": 1438,
      "▁по-ф": 1439,
      "▁job": 1440,
      "ва.\n": 1441,
      "▁left": 1442,
      "xt": 1443,
      "али,": 1444,
      "▁комна": 1445,
      "day": 1446,
      "▁подо": 1447,
      "▁even": 1448,
      "ён": 1449,
      "ire": 1450,
      "▁gu": 1451,
      "▁saw": 1452,
      "▁пом": 1453,
      "▁bec": 1454,
      "▁Have": 1455,
      "▁gl": 1456,
      "▁ever": 1457,
      "act": 1458,
      "ста,": 1459,
      "▁немного": 1460,
      "лод": 1461,
      "▁If": 1462,
      "▁There's": 1463,
      "жем": 1464,
      "▁yester": 1465,
      "р.\n": 1466,
      "три": 1467,
      "▁wants": 1468,
      "▁fa": 1469,
      "▁буду": 1470,
      "rent": 1471,
      "self.\n": 1472,
      "ry.\n": 1473,
      "▁sc": 1474,
      "▁day": 1475,
      "▁им": 1476,
      "▁start": 1477,
      "▁проблем": 1478,
      "▁Если": 1479,
      "thing.\n": 1480,
      "▁used": 1481,
      "▁into": 1482,
      "▁позво": 1483,
      "▁пы": 1484,
      "сту": 1485,
      "▁Л": 1486,
      "ше.\n": 1487,
      "mber": 1488,
      "раз": 1489,
      "ром": 1490,
      "▁dif": 1491,
      "▁дей": 1492,
      "ну.\n": 1493,
      "лен": 1494,
      "▁сло": 1495,
      "▁day.\n": 1496,
      "▁что-то": 1497,
      "ится.\n": 1498,
      "▁она": 1499,
      "кая": 1500,
      "al.\n": 1501,
      "oth": 1502,
      "▁него": 1503,
      "ения.\n": 1504,
      "▁слыш": 1505,
      "зы": 1506,
      "▁недел": 1507,
      "▁home.\n": 1508,
      "ться": 1509,
      "oun": 1510,
      "дить": 1511,
      "зна": 1512,
      "▁Х": 1513,
      "▁imp": 1514,
      "▁Тому.\n": 1515,
      "▁ear": 1516,
      "▁money": 1517,
      "▁seem": 1518,
      "деюсь,": 1519,
      "▁2": 1520,
      "ict": 1521,
      "сти.\n": 1522,
      "▁it's": 1523,
      "ения": 1524,
      "▁свою": 1525,
      "ним": 1526,
      "ing?\n": 1527,
      "▁часто": 1528,
      "▁hat": 1529,
      "▁help.\n": 1530,
      "▁должны": 1531,
      "▁лучше": 1532,
      "iz": 1533,
      "▁done": 1534,
      "▁lat": 1535,
      "▁litt": 1536,
      "▁drink": 1537,
      "▁after": 1538,
      "rive": 1539,
      "irst": 1540,
      "rest": 1541,
      "▁father": 1542,
      "▁получ": 1543,
      "▁understand": 1544,
      "▁wrong": 1545,
      "▁пой": 1546,
      "her.\n": 1547,
      "дь": 1548,
      "ли.\n": 1549,
      "те,": 1550,
      "▁acc": 1551,
      "ood": 1552,
      "▁сказать": 1553,
      "▁действи": 1554,
      "▁care": 1555,
      "можно": 1556,
      "▁bought": 1557,
      "▁put": 1558,
      "вари": 1559,
      "▁си": 1560,
      "▁почему": 1561,
      "▁собира": 1562,
      "енег": 1563,
      "▁app": 1564,
      "▁next": 1565,
      "▁бес": 1566,
      "▁Бостоне.\n": 1567,
      "og": 1568,
      "вает": 1569,
      "▁уме": 1570,
      "▁tomorrow.\n": 1571,
      "лы": 1572,
      "▁помог": 1573,
      "ты.\n": 1574,
      "глас": 1575,
      "▁они": 1576,
      "sw": 1577,
      "ting": 1578,
      "иться": 1579,
      "▁хочу,": 1580,
      "▁Бостон.\n": 1581,
      "▁рассказ": 1582,
      "▁sur": 1583,
      "▁What's": 1584,
      "▁денег": 1585,
      "▁able": 1586,
      "чь.\n": 1587,
      "▁there.\n": 1588,
      "▁little": 1589,
      "▁жиз": 1590,
      "▁поех": 1591,
      "▁жив": 1592,
      "sp": 1593,
      "це": 1594,
      "вый": 1595,
      "▁Does": 1596,
      "ure": 1597,
      "se.\n": 1598,
      "▁sleep": 1599,
      "▁hard": 1600,
      "o.\n": 1601,
      "▁пу": 1602,
      "▁уб": 1603,
      "▁действительно": 1604,
      "▁am": 1605,
      "▁car.\n": 1606,
      "ья": 1607,
      "an.\n": 1608,
      "▁me?\n": 1609,
      "▁couldn't": 1610,
      "aught": 1611,
      "▁ide": 1612,
      "▁люблю": 1613,
      "ды": 1614,
      "▁gave": 1615,
      "▁answ": 1616,
      "ouse": 1617,
      "▁авто": 1618,
      "reat": 1619,
      "▁ок": 1620,
      "▁children": 1621,
      "▁поня": 1622,
      "▁этим": 1623,
      "▁уви": 1624,
      "▁el": 1625,
      "▁way": 1626,
      "▁ле": 1627,
      "▁found": 1628,
      "ised": 1629,
      "▁Mary's": 1630,
      "й,": 1631,
      "▁now": 1632,
      "▁откры": 1633,
      "▁pol": 1634,
      "▁wouldn't": 1635,
      "ста.\n": 1636,
      "▁took": 1637,
      "▁забы": 1638,
      "▁оши": 1639,
      "▁came": 1640,
      "▁любит": 1641,
      "▁несколько": 1642,
      "▁па": 1643,
      "▁этой": 1644,
      "ress": 1645,
      "raid": 1646,
      "▁afraid": 1647,
      "▁po": 1648,
      "рат": 1649,
      "шу": 1650,
      "▁чего": 1651,
      "▁мой": 1652,
      "▁Никто": 1653,
      "▁чувст": 1654,
      "▁often": 1655,
      "воль": 1656,
      "▁это.\n": 1657,
      "▁meet": 1658,
      "сте": 1659,
      "зи": 1660,
      "▁wear": 1661,
      "рос": 1662,
      "▁first": 1663,
      "▁или": 1664,
      "▁свой": 1665,
      "▁house": 1666,
      "▁lik": 1667,
      "▁произо": 1668,
      "ным.\n": 1669,
      "люч": 1670,
      "▁reme": 1671,
      "ед": 1672,
      "ful": 1673,
      "▁понима": 1674,
      "▁haven't": 1675,
      "част": 1676,
      "ous.\n": 1677,
      "▁меня.\n": 1678,
      "пла": 1679,
      "▁forg": 1680,
      "ном": 1681,
      "яс": 1682,
      "ров": 1683,
      "▁anym": 1684,
      "▁пе": 1685,
      "ние": 1686,
      "▁bad": 1687,
      "▁рань": 1688,
      "чер": 1689,
      "▁французски": 1690,
      "ually": 1691,
      "n.\n": 1692,
      "▁gir": 1693,
      "▁learn": 1694,
      "▁нет.\n": 1695,
      "▁part": 1696,
      "▁str": 1697,
      "▁Надеюсь,": 1698,
      "▁ско": 1699,
      "▁помощ": 1700,
      "▁money.\n": 1701,
      "с.\n": 1702,
      "ком.\n": 1703,
      "▁before": 1704,
      "тре": 1705,
      "▁пло": 1706,
      "ший": 1707,
      "▁turn": 1708,
      "▁мной": 1709,
      "▁книг": 1710,
      "▁купил": 1711,
      "▁Тебе": 1712,
      "▁почти": 1713,
      "▁пер": 1714,
      "ешь,": 1715,
      "бой": 1716,
      "▁выгля": 1717,
      "▁wond": 1718,
      "▁cat": 1719,
      "▁eas": 1720,
      "▁anymore.\n": 1721,
      "▁помочь": 1722,
      "▁можем": 1723,
      "иться.\n": 1724,
      "▁дома.\n": 1725,
      "ount": 1726,
      "most": 1727,
      "▁сделал.\n": 1728,
      "ряд": 1729,
      "ял": 1730,
      "▁свои": 1731,
      "▁pers": 1732,
      "ard": 1733,
      "▁можете": 1734,
      "ную": 1735,
      "▁Хо": 1736,
      "ult": 1737,
      "▁looking": 1738,
      "▁фо": 1739,
      "▁От": 1740,
      "вери": 1741,
      "▁разго": 1742,
      "▁question": 1743,
      "e?\n": 1744,
      "▁sho": 1745,
      "▁says": 1746,
      "▁ph": 1747,
      "▁похо": 1748,
      "▁друз": 1749,
      "дол": 1750,
      "конч": 1751,
      "▁вме": 1752,
      "▁пар": 1753,
      "уж": 1754,
      "▁everything": 1755,
      "▁problem": 1756,
      "▁morn": 1757,
      "▁само": 1758,
      "▁watch": 1759,
      "ter.\n": 1760,
      "▁yesterday.\n": 1761,
      "вно": 1762,
      "▁enough": 1763,
      "▁ид": 1764,
      "пи": 1765,
      "рал": 1766,
      "▁тоже": 1767,
      "▁walk": 1768,
      "▁Мэри,": 1769,
      "дать": 1770,
      "рет": 1771,
      "▁следую": 1772,
      "▁show": 1773,
      "▁ответ": 1774,
      "▁che": 1775,
      "▁своей": 1776,
      "ation.\n": 1777,
      "▁спо": 1778,
      "▁open": 1779,
      "▁heard": 1780,
      "▁Australia.\n": 1781,
      "рт": 1782,
      "стоя": 1783,
      "▁two": 1784,
      "кажите": 1785,
      "▁remember": 1786,
      "▁Этот": 1787,
      "▁nothing": 1788,
      "ose": 1789,
      "▁один": 1790,
      "▁бу": 1791,
      "▁доро": 1792,
      "▁wonder": 1793,
      "▁lost": 1794,
      "▁yet.\n": 1795,
      "ack.\n": 1796,
      "ной.\n": 1797,
      "ита": 1798,
      "нил": 1799,
      "▁пока": 1800,
      "▁almost": 1801,
      "фи": 1802,
      "▁Эта": 1803,
      "▁вечер": 1804,
      "▁1": 1805,
      "▁stop": 1806,
      "▁по-французс": 1807,
      "кра": 1808,
      "▁труд": 1809,
      "▁Tell": 1810,
      "▁дома": 1811,
      "▁по-французски.\n": 1812,
      "▁mother": 1813,
      "▁mist": 1814,
      "▁them": 1815,
      "▁swim": 1816,
      "сть.\n": 1817,
      "ра.\n": 1818,
      "▁остав": 1819,
      "ник": 1820,
      "▁голо": 1821,
      "▁tru": 1822,
      "▁ча": 1823,
      "▁сов": 1824,
      "▁fam": 1825,
      "▁Давайте": 1826,
      "▁hous": 1827,
      "▁it?\n": 1828,
      "▁hour": 1829,
      "перь": 1830,
      "ный.\n": 1831,
      "▁двер": 1832,
      "▁всего": 1833,
      "ие": 1834,
      "▁которы": 1835,
      "▁беспо": 1836,
      "gg": 1837,
      "▁Вас": 1838,
      "▁Тома?\n": 1839,
      "▁Australia": 1840,
      "дил": 1841,
      "▁same": 1842,
      "▁говорит,": 1843,
      "▁ск": 1844,
      "ется.\n": 1845,
      "▁сколько": 1846,
      "▁tried": 1847,
      "▁anyone": 1848,
      "шая": 1849,
      "сем": 1850,
      "▁поте": 1851,
      "илось": 1852,
      "erest": 1853,
      "pr": 1854,
      "пы": 1855,
      "▁sn": 1856,
      "▁seen": 1857,
      "▁without": 1858,
      "▁list": 1859,
      "▁стра": 1860,
      "fic": 1861,
      "▁гово": 1862,
      "▁Мой": 1863,
      "▁kill": 1864,
      "▁сы": 1865,
      "▁здесь.\n": 1866,
      "▁We'll": 1867,
      "aw": 1868,
      "▁room.\n": 1869,
      "▁дал": 1870,
      "▁чём": 1871,
      "тя": 1872,
      "нее": 1873,
      "▁work.\n": 1874,
      "▁ум": 1875,
      "ive.\n": 1876,
      "ffe": 1877,
      "▁вами": 1878,
      "▁brother": 1879,
      "▁up.\n": 1880,
      "▁себе": 1881,
      "▁happened": 1882,
      "частли": 1883,
      "▁име": 1884,
      "▁young": 1885,
      "▁anything.\n": 1886,
      "ich": 1887,
      "▁побе": 1888,
      "▁likes": 1889,
      "▁два": 1890,
      "▁well.\n": 1891,
      "▁иг": 1892,
      "ите": 1893,
      "▁уверен,": 1894,
      "▁May": 1895,
      "▁this?\n": 1896,
      "▁Ка": 1897,
      "▁смог": 1898,
      "▁встре": 1899,
      "ных": 1900,
      "ept": 1901,
      "vi": 1902,
      "▁hur": 1903,
      "вали": 1904,
      "али.\n": 1905,
      "▁та": 1906,
      "▁wh": 1907,
      "▁interest": 1908,
      "▁prom": 1909,
      "▁работу.\n": 1910,
      "▁parent": 1911,
      "si": 1912,
      "ник.\n": 1913,
      "▁miss": 1914,
      "▁cold": 1915,
      "▁послед": 1916,
      "▁разговари": 1917,
      "▁house.\n": 1918,
      "er?\n": 1919,
      "▁говорить": 1920,
      "юда": 1921,
      "▁toget": 1922,
      "▁expect": 1923,
      "▁сем": 1924,
      "inn": 1925,
      "▁прос": 1926,
      "▁готов": 1927,
      "фо": 1928,
      "▁соглас": 1929,
      "▁Пожалуй": 1930,
      "▁here?\n": 1931,
      "▁wind": 1932,
      "ar.\n": 1933,
      "▁иде": 1934,
      "▁pret": 1935,
      "▁both": 1936,
      "▁обы": 1937,
      "шли": 1938,
      "▁may": 1939,
      "▁big": 1940,
      "▁кажд": 1941,
      "▁помочь.\n": 1942,
      "нова": 1943,
      "able.\n": 1944,
      "ided": 1945,
      "поз": 1946,
      "▁teac": 1947,
      "▁наде": 1948,
      "ark": 1949,
      "▁att": 1950,
      "шла": 1951,
      "ad.\n": 1952,
      "чем": 1953,
      "▁пон": 1954,
      "▁пойти": 1955,
      "▁years": 1956,
      "о.\n": 1957,
      "▁mat": 1958,
      "▁интерес": 1959,
      "▁никто": 1960,
      "▁door": 1961,
      "▁раньше": 1962,
      "та.\n": 1963,
      "▁Како": 1964,
      "age": 1965,
      "▁Бостоне": 1966,
      "▁При": 1967,
      "▁Пожалуйста,": 1968,
      "▁пожалуйста.\n": 1969,
      "▁night.\n": 1970,
      "ired": 1971,
      "ют.\n": 1972,
      "▁поговорить": 1973,
      "ела": 1974,
      "аться.\n": 1975,
      "▁всё,": 1976,
      "▁купить": 1977,
      "▁week.\n": 1978,
      "▁сер": 1979,
      "▁their": 1980,
      "дель": 1981,
      "▁говорил": 1982,
      "▁ошиб": 1983,
      "▁дет": 1984,
      "▁того": 1985,
      "▁Ва": 1986,
      "▁горо": 1987,
      "▁job.\n": 1988,
      "ok": 1989,
      "ет?\n": 1990,
      "ers.\n": 1991,
      "▁St": 1992,
      "▁верну": 1993,
      "▁мину": 1994,
      "вя": 1995,
      "▁thir": 1996,
      "▁счастли": 1997,
      "чита": 1998,
      "▁kind": 1999,
      "ake.\n": 2000,
      "▁краси": 2001,
      "▁rec": 2002,
      "же,": 2003,
      "ца": 2004,
      "▁посмо": 2005,
      "▁времени": 2006,
      "ign": 2007,
      "▁хотите": 2008,
      "▁вра": 2009,
      "▁стоит": 2010,
      "aut": 2011,
      "▁bro": 2012,
      "▁понрав": 2013,
      "hing.\n": 2014,
      "mp": 2015,
      "▁Nobody": 2016,
      "нить": 2017,
      "▁wish": 2018,
      "▁пись": 2019,
      "ull": 2020,
      "▁fo": 2021,
      "▁rain": 2022,
      "ic.\n": 2023,
      "▁surpr": 2024,
      "и?\n": 2025,
      "ace": 2026,
      "ёт.\n": 2027,
      "▁Меня": 2028,
      "ился.\n": 2029,
      "▁back.\n": 2030,
      "▁день.\n": 2031,
      "динствен": 2032,
      "ги.\n": 2033,
      "▁ска": 2034,
      "▁compl": 2035,
      "akes": 2036,
      "▁study": 2037,
      "▁trut": 2038,
      "▁else": 2039,
      "▁week": 2040,
      "▁name": 2041,
      "▁cont": 2042,
      "пре": 2043,
      "▁науч": 2044,
      "▁sing": 2045,
      "ess.\n": 2046,
      "▁законч": 2047,
      "▁автобу": 2048,
      "ted": 2049,
      "▁hot": 2050,
      "ным": 2051,
      "ise": 2052,
      "ему,": 2053,
      "aking": 2054,
      "тец": 2055,
      "▁умер": 2056,
      "▁попросил": 2057,
      "▁coffe": 2058,
      "▁beg": 2059,
      "▁aren't": 2060,
      "▁потеря": 2061,
      "30": 2062,
      "▁bre": 2063,
      "▁уч": 2064,
      "▁he's": 2065,
      "льз": 2066,
      "▁слу": 2067,
      "▁des": 2068,
      "▁пода": 2069,
      "▁зо": 2070,
      "▁моло": 2071,
      "▁язы": 2072,
      "▁Everyone": 2073,
      "▁cr": 2074,
      "end.\n": 2075,
      "▁needs": 2076,
      "▁Your": 2077,
      "▁объ": 2078,
      "▁We've": 2079,
      "аз": 2080,
      "▁дожд": 2081,
      "вуш": 2082,
      "▁кар": 2083,
      "▁ten": 2084,
      "▁is.\n": 2085,
      "ail": 2086,
      "▁each": 2087,
      "▁туда": 2088,
      "▁decided": 2089,
      "▁go.\n": 2090,
      "▁kid": 2091,
      "▁поне": 2092,
      "▁adv": 2093,
      "vor": 2094,
      "го.\n": 2095,
      "▁Бостон": 2096,
      "▁keep": 2097,
      "▁He's": 2098,
      "▁времен": 2099,
      "▁съ": 2100,
      "▁happened.\n": 2101,
      "y?\n": 2102,
      "▁cle": 2103,
      "▁доб": 2104,
      "ете.\n": 2105,
      "жен": 2106,
      "▁опоз": 2107,
      "зн": 2108,
      "дер": 2109,
      "▁лет": 2110,
      "▁фото": 2111,
      "тался": 2112,
      "▁few": 2113,
      "ступ": 2114,
      "том": 2115,
      "▁выход": 2116,
      "eri": 2117,
      "▁знали,": 2118,
      "▁these": 2119,
      "▁beaut": 2120,
      "вую": 2121,
      "▁школ": 2122,
      "be": 2123,
      "▁уж": 2124,
      "▁их": 2125,
      "▁minut": 2126,
      "▁Some": 2127,
      "▁alone.\n": 2128,
      "▁плани": 2129,
      "▁коф": 2130,
      "▁кого": 2131,
      "ерез": 2132,
      "ince": 2133,
      "вой": 2134,
      "▁Вс": 2135,
      "▁rep": 2136,
      "стато": 2137,
      "▁Ж": 2138,
      "▁напис": 2139,
      "т,": 2140,
      "▁mon": 2141,
      "▁looked": 2142,
      "▁Интерес": 2143,
      "▁останов": 2144,
      "▁school.\n": 2145,
      "▁поли": 2146,
      "ix": 2147,
      "▁pass": 2148,
      "▁looks": 2149,
      "▁ваш": 2150,
      "▁сме": 2151,
      "▁единствен": 2152,
      "pped": 2153,
      "▁supp": 2154,
      "▁домой.\n": 2155,
      "▁girl": 2156,
      "▁morning.\n": 2157,
      "▁понедель": 2158,
      "▁показ": 2159,
      "▁даже": 2160,
      "▁forgot": 2161,
      "▁То": 2162,
      "▁оди": 2163,
      "▁гла": 2164,
      "ble.\n": 2165,
      "able": 2166,
      "▁силь": 2167,
      "ame.\n": 2168,
      "▁могли": 2169,
      "▁машину.\n": 2170,
      "▁поез": 2171,
      "▁предлож": 2172,
      "▁можно": 2173,
      "▁ap": 2174,
      "▁ез": 2175,
      "▁каждый": 2176,
      "ью": 2177,
      "ние.\n": 2178,
      "▁trying": 2179,
      "▁waiting": 2180,
      "дёт.\n": 2181,
      "▁Интересно,": 2182,
      "ехал": 2183,
      "▁vis": 2184,
      "е?\n": 2185,
      "шел": 2186,
      "де.\n": 2187,
      "igh": 2188,
      "▁Ма": 2189,
      "▁chang": 2190,
      "iful": 2191,
      "▁expl": 2192,
      "ip": 2193,
      "▁lau": 2194,
      "▁беспоко": 2195,
      "ьё": 2196,
      "или.\n": 2197,
      "at.\n": 2198,
      "ую": 2199,
      "ились": 2200,
      "▁to.\n": 2201,
      "▁use": 2202,
      "ried.\n": 2203,
      "▁Моя": 2204,
      "дцать": 2205,
      "ine": 2206,
      "▁са": 2207,
      "▁су": 2208,
      "▁Австралии.\n": 2209,
      "ved": 2210,
      "й?\n": 2211,
      "▁started": 2212,
      "деть": 2213,
      "▁run": 2214,
      "верш": 2215,
      "чина": 2216,
      "▁listen": 2217,
      "тер": 2218,
      "бли": 2219,
      "▁правда": 2220,
      "▁реб": 2221,
      "▁diffic": 2222,
      "ды.\n": 2223,
      "гли": 2224,
      "ена": 2225,
      "▁another": 2226,
      "▁придёт": 2227,
      "▁getting": 2228,
      "▁Его": 2229,
      "▁beautiful": 2230,
      "▁cho": 2231,
      "▁cook": 2232,
      "▁per": 2233,
      "▁доволь": 2234,
      "▁hun": 2235,
      "ream": 2236,
      "▁холод": 2237,
      "▁sec": 2238,
      "▁sit": 2239,
      "▁произошло": 2240,
      "▁wrong.\n": 2241,
      "▁денег.\n": 2242,
      "▁sk": 2243,
      "ко.\n": 2244,
      "нял": 2245,
      "▁живёт": 2246,
      "▁родите": 2247,
      "▁break": 2248,
      "ско": 2249,
      "ause": 2250,
      "▁All": 2251,
      "ated": 2252,
      "шей": 2253,
      "алось": 2254,
      "▁late.\n": 2255,
      "ced": 2256,
      "▁моя": 2257,
      "▁sis": 2258,
      "▁пришёл": 2259,
      "th.\n": 2260,
      "▁собак": 2261,
      "▁act": 2262,
      "▁bir": 2263,
      "▁дере": 2264,
      "▁наза": 2265,
      "▁уди": 2266,
      "▁пл": 2267,
      "▁being": 2268,
      "▁До": 2269,
      "▁pict": 2270,
      "oy": 2271,
      "▁talking": 2272,
      "▁скоро": 2273,
      "ch.\n": 2274,
      "▁boy": 2275,
      "что": 2276,
      "▁doct": 2277,
      "▁проис": 2278,
      "▁usually": 2279,
      "ний": 2280,
      "илось.\n": 2281,
      "▁нужна": 2282,
      "▁дете": 2283,
      "▁married": 2284,
      "▁met": 2285,
      "▁he'd": 2286,
      "▁around": 2287,
      "ngl": 2288,
      "▁police": 2289,
      "▁кое": 2290,
      "д,": 2291,
      "▁навер": 2292,
      "ian": 2293,
      "▁20": 2294,
      "▁плохо": 2295,
      "▁учи": 2296,
      "▁быстро": 2297,
      "?\"": 2298,
      "▁trust": 2299,
      "osed": 2300,
      "▁rest": 2301,
      "▁знаете,": 2302,
      "▁fun": 2303,
      "куда": 2304,
      "fe.\n": 2305,
      "and.\n": 2306,
      "▁пор": 2307,
      "▁again": 2308,
      "▁бра": 2309,
      "ide.\n": 2310,
      "▁том,": 2311,
      "▁Сегодня": 2312,
      "▁такой": 2313,
      "▁перед": 2314,
      "▁count": 2315,
      "▁планиру": 2316,
      "пол": 2317,
      "▁меся": 2318,
      "▁телеви": 2319,
      "▁Ф": 2320,
      "▁найти": 2321,
      "▁выи": 2322,
      "ла.\n": 2323,
      "альчи": 2324,
      "▁можешь": 2325,
      "йти.\n": 2326,
      "▁cha": 2327,
      "чери": 2328,
      "▁через": 2329,
      "▁win.\n": 2330,
      "mer": 2331,
      "▁когда-нибудь": 2332,
      "ably": 2333,
      "▁решил": 2334,
      "▁буде": 2335,
      "▁wif": 2336,
      "▁out.\n": 2337,
      "▁глу": 2338,
      "▁убе": 2339,
      "▁быть,": 2340,
      "ci": 2341,
      "енно": 2342,
      "▁that's": 2343,
      "▁обычно": 2344,
      "▁visit": 2345,
      "▁today": 2346,
      "▁best": 2347,
      "ния": 2348,
      "▁own": 2349,
      "стра": 2350,
      "ered": 2351,
      "▁sl": 2352,
      "▁знаю": 2353,
      "ключ": 2354,
      "▁ey": 2355,
      "▁жд": 2356,
      "▁arrive": 2357,
      "▁стар": 2358,
      "тому": 2359,
      "▁что-нибудь": 2360,
      "но?\n": 2361,
      "▁Ch": 2362,
      "вала": 2363,
      "y,": 2364,
      "ков": 2365,
      "ать?\n": 2366,
      "вая": 2367,
      "▁Со": 2368,
      "▁ду": 2369,
      "▁things": 2370,
      "ню": 2371,
      "▁По-": 2372,
      "кому": 2373,
      "графи": 2374,
      "пом": 2375,
      "са": 2376,
      "▁sha": 2377,
      "▁prob": 2378,
      "▁возможно": 2379,
      "▁муж": 2380,
      "▁They're": 2381,
      "▁her.\n": 2382,
      "▁Всё": 2383,
      "▁сюда": 2384,
      "▁forget": 2385,
      "▁ведь": 2386,
      "▁import": 2387,
      "▁удив": 2388,
      "▁нена": 2389,
      "▁времени.\n": 2390,
      "up": 2391,
      "▁спросил": 2392,
      "▁hasn't": 2393,
      "ция": 2394,
      "▁problem.\n": 2395,
      "ist.\n": 2396,
      "во.\n": 2397,
      "▁вос": 2398,
      "ace.\n": 2399,
      "▁кажет": 2400,
      "ired.\n": 2401,
      "▁late": 2402,
      "▁стран": 2403,
      "▁девуш": 2404,
      "▁телевизо": 2405,
      "тив": 2406,
      "▁Можно": 2407,
      "▁seems": 2408,
      "▁ожи": 2409,
      "ens": 2410,
      "▁probably": 2411,
      "те?\n": 2412,
      "▁тре": 2413,
      "▁pay": 2414,
      "ood.\n": 2415,
      "▁friends.\n": 2416,
      "▁ры": 2417,
      "▁тем": 2418,
      "▁хочешь": 2419,
      "▁всех": 2420,
      "илась": 2421,
      "▁glad": 2422,
      "▁объяс": 2423,
      "ться.\n": 2424,
      "▁знать,": 2425,
      "▁soon": 2426,
      "▁совсем": 2427,
      "▁friends": 2428,
      "▁играть": 2429,
      "тро": 2430,
      "▁Вот": 2431,
      "▁wom": 2432,
      "▁довер": 2433,
      "▁unt": 2434,
      "▁sto": 2435,
      "▁происход": 2436,
      "gry.\n": 2437,
      "али?\n": 2438,
      "▁tow": 2439,
      "▁встрет": 2440,
      "▁diffe": 2441,
      "ре.\n": 2442,
      "▁should've": 2443,
      "▁умеет": 2444,
      "ning": 2445,
      "тел": 2446,
      "age.\n": 2447,
      "сипе": 2448,
      "елосипе": 2449,
      "▁Jap": 2450,
      "ца.\n": 2451,
      "▁might": 2452,
      "ем,": 2453,
      "▁ех": 2454,
      "▁shouldn't": 2455,
      "▁ули": 2456,
      "▁sorr": 2457,
      "▁обо": 2458,
      "▁pain": 2459,
      "ней": 2460,
      "▁соверш": 2461,
      "▁idea": 2462,
      "▁together.\n": 2463,
      "ности.\n": 2464,
      "▁чит": 2465,
      "▁отец": 2466,
      "▁ref": 2467,
      "▁Тома,": 2468,
      "▁answer": 2469,
      "▁есть.\n": 2470,
      "▁ago.\n": 2471,
      "г.\n": 2472,
      "▁заним": 2473,
      "▁куда": 2474,
      "ared": 2475,
      "▁велосипе": 2476,
      "би": 2477,
      "▁зво": 2478,
      "▁stor": 2479,
      "▁Скажите": 2480,
      "▁Дж": 2481,
      "ваться": 2482,
      "▁жена": 2483,
      "▁кое-": 2484,
      "ty.\n": 2485,
      "ель": 2486,
      "▁Would": 2487,
      "ное,": 2488,
      "ибо": 2489,
      "▁попро": 2490,
      "ast.\n": 2491,
      "▁измен": 2492,
      "ossi": 2493,
      "▁Jo": 2494,
      "е,": 2495,
      "зможно": 2496,
      "▁поло": 2497,
      "▁fr": 2498,
      "дим": 2499,
      "ure.\n": 2500,
      "▁уст": 2501,
      "▁His": 2502,
      "▁весь": 2503,
      "▁хороший": 2504,
      "▁right.\n": 2505,
      "ret": 2506,
      "▁идти": 2507,
      "▁Joh": 2508,
      "ob": 2509,
      "жде": 2510,
      "к?\n": 2511,
      "ished": 2512,
      "▁знает": 2513,
      "▁гру": 2514,
      "ете?\n": 2515,
      "▁R": 2516,
      "▁Engl": 2517,
      "▁закры": 2518,
      "▁mus": 2519,
      "▁drive": 2520,
      "▁попрос": 2521,
      "▁ба": 2522,
      "olog": 2523,
      "▁dinn": 2524,
      "▁муз": 2525,
      "ment": 2526,
      "▁until": 2527,
      "▁зам": 2528,
      "моему,": 2529,
      "▁much.\n": 2530,
      "сте.\n": 2531,
      "ёр": 2532,
      "▁ret": 2533,
      "spect": 2534,
      "yc": 2535,
      "▁пое": 2536,
      "нулся": 2537,
      "том.\n": 2538,
      "▁called": 2539,
      "т?\n": 2540,
      "лад": 2541,
      "all.\n": 2542,
      "▁Could": 2543,
      "▁Може": 2544,
      "дца": 2545,
      "ue": 2546,
      "су": 2547,
      "рил": 2548,
      "кой.\n": 2549,
      "▁ночь": 2550,
      "▁Давай": 2551,
      "ка?\n": 2552,
      "▁скуч": 2553,
      "▁того,": 2554,
      "▁Tom,": 2555,
      "крас": 2556,
      "▁mean": 2557,
      "▁wearing": 2558,
      "▁вечером": 2559,
      "▁bit": 2560,
      "▁inv": 2561,
      "▁happy": 2562,
      "▁мои": 2563,
      "ами.\n": 2564,
      "▁письмо": 2565,
      "▁important": 2566,
      "при": 2567,
      "▁Пос": 2568,
      "кус": 2569,
      "чу": 2570,
      "▁res": 2571,
      "▁пришло": 2572,
      "обще": 2573,
      "▁По-моему,": 2574,
      "ей.\n": 2575,
      "рм": 2576,
      "▁счита": 2577,
      "▁lun": 2578,
      "рова": 2579,
      "▁great": 2580,
      "ни.\n": 2581,
      "▁подожд": 2582,
      "▁you'd": 2583,
      "года": 2584,
      "▁away.\n": 2585,
      "статочно": 2586,
      "▁English": 2587,
      "whe": 2588,
      "ree.\n": 2589,
      "▁женщи": 2590,
      "▁tomorrow": 2591,
      "▁parents": 2592,
      "ала.\n": 2593,
      "▁эта": 2594,
      "▁запла": 2595,
      "▁something.\n": 2596,
      "oc": 2597,
      "ту.\n": 2598,
      "ert": 2599,
      "▁Will": 2600,
      "▁TV": 2601,
      "▁нашёл": 2602,
      "▁hair": 2603,
      "▁year.\n": 2604,
      "▁anybody": 2605,
      "ied": 2606,
      "ank": 2607,
      "щий": 2608,
      "▁моей": 2609,
      "▁коро": 2610,
      "долж": 2611,
      "▁следующ": 2612,
      ":30": 2613,
      "▁застав": 2614,
      "▁работу": 2615,
      "ц.\n": 2616,
      "▁someone": 2617,
      "▁pleas": 2618,
      "▁air": 2619,
      "роят": 2620,
      "▁hate": 2621,
      "▁person": 2622,
      "глий": 2623,
      "доб": 2624,
      "▁happy.\n": 2625,
      "▁пошёл": 2626,
      "▁время.\n": 2627,
      "чно.\n": 2628,
      "▁dri": 2629,
      "▁died": 2630,
      "а,": 2631,
      "▁ton": 2632,
      "▁стал": 2633,
      "▁человек.\n": 2634,
      "ud": 2635,
      "▁пря": 2636,
      "▁сделать?\n": 2637,
      "▁Австралию.\n": 2638,
      "▁ужи": 2639,
      "▁приход": 2640,
      "его.\n": 2641,
      "▁because": 2642,
      "oke": 2643,
      "▁ин": 2644,
      "▁Эти": 2645,
      "ются": 2646,
      "▁working": 2647,
      "▁зас": 2648,
      "ались": 2649,
      "▁favor": 2650,
      "▁ненави": 2651,
      "ary": 2652,
      "▁гото": 2653,
      "hank": 2654,
      "▁никого": 2655,
      "▁забыл": 2656,
      "▁назад.\n": 2657,
      "вар": 2658,
      "▁брос": 2659,
      "▁пыта": 2660,
      "▁pretty": 2661,
      "int": 2662,
      "▁своего": 2663,
      "▁пес": 2664,
      "▁тут": 2665,
      "▁You've": 2666,
      "▁exact": 2667,
      "▁change": 2668,
      "▁довольно": 2669,
      "вайте": 2670,
      "▁года": 2671,
      "▁happen.\n": 2672,
      "te": 2673,
      "wor": 2674,
      "ate.\n": 2675,
      "▁Didn't": 2676,
      "▁years.\n": 2677,
      "▁фотографи": 2678,
      "ies": 2679,
      "▁quite": 2680,
      "▁люде": 2681,
      ".\"": 2682,
      "ase": 2683,
      "▁on.\n": 2684,
      "ные.\n": 2685,
      "▁ново": 2686,
      "▁вес": 2687,
      "▁fell": 2688,
      "▁Ро": 2689,
      "▁гор": 2690,
      "▁род": 2691,
      "▁busy": 2692,
      "▁пра": 2693,
      "oud": 2694,
      "▁disc": 2695,
      "▁such": 2696,
      "▁должно": 2697,
      "треть": 2698,
      "▁difficult": 2699,
      "▁поку": 2700,
      "▁Boston?\n": 2701,
      "▁yet": 2702,
      "ала,": 2703,
      "▁letter": 2704,
      "for": 2705,
      "ary.\n": 2706,
      "▁ins": 2707,
      "▁всем": 2708,
      "▁truth.\n": 2709,
      "▁утр": 2710,
      "ver.\n": 2711,
      "ват": 2712,
      "▁rel": 2713,
      "▁тобой": 2714,
      "▁all.\n": 2715,
      "▁away": 2716,
      "▁Thank": 2717,
      "▁место": 2718,
      "▁следует": 2719,
      "▁наш": 2720,
      "ence.\n": 2721,
      "вест": 2722,
      "▁leave.\n": 2723,
      "пуст": 2724,
      "▁поехать": 2725,
      "ity": 2726,
      "▁вып": 2727,
      "▁Теперь": 2728,
      "черин": 2729,
      "ния.\n": 2730,
      "▁французс": 2731,
      "▁зада": 2732,
      "▁прошло": 2733,
      "▁himself.\n": 2734,
      "▁everyone": 2735,
      "▁book.\n": 2736,
      "бло": 2737,
      "ity.\n": 2738,
      "▁light": 2739,
      "▁Our": 2740,
      "▁most": 2741,
      "▁будем": 2742,
      "▁too.\n": 2743,
      "▁боле": 2744,
      "▁soon.\n": 2745,
      "▁question.\n": 2746,
      "▁уро": 2747,
      "▁гра": 2748,
      "▁друго": 2749,
      "▁ло": 2750,
      "▁исто": 2751,
      "▁прош": 2752,
      "дно": 2753,
      "▁теб": 2754,
      "▁needed": 2755,
      "▁come.\n": 2756,
      "▁кто-то": 2757,
      "▁ch": 2758,
      "▁know.\n": 2759,
      "▁подум": 2760,
      "▁хотел,": 2761,
      "▁кем": 2762,
      "▁life.\n": 2763,
      "▁conc": 2764,
      "▁деньги": 2765,
      "hes": 2766,
      "▁sat": 2767,
      "▁недо": 2768,
      "▁ед": 2769,
      "▁far": 2770,
      "▁Mon": 2771,
      "жду": 2772,
      "▁cost": 2773,
      "▁them.\n": 2774,
      "▁doll": 2775,
      "ский": 2776,
      "▁ника": 2777,
      "▁долла": 2778,
      "ров.\n": 2779,
      "▁дверь": 2780,
      "▁говоря": 2781,
      "▁Том?\n": 2782,
      "▁своих": 2783,
      "▁изуч": 2784,
      "▁пришлось": 2785,
      "ild": 2786,
      "ьте": 2787,
      "▁кла": 2788,
      "itc": 2789,
      "▁world": 2790,
      "▁филь": 2791,
      "к,": 2792,
      "рю": 2793,
      "▁вери": 2794,
      "▁thinks": 2795,
      "нё": 2796,
      "▁ord": 2797,
      "▁пожалуйста,": 2798,
      "▁случа": 2799,
      "uck": 2800,
      "вал.\n": 2801,
      "ваю": 2802,
      "▁сол": 2803,
      "▁пытался": 2804,
      "▁thr": 2805,
      "вает.\n": 2806,
      "▁вообще": 2807,
      "▁французский.\n": 2808,
      "▁узна": 2809,
      "рую": 2810,
      "▁музы": 2811,
      "рел": 2812,
      "est.\n": 2813,
      "▁lives": 2814,
      "▁Зачем": 2815,
      "▁dang": 2816,
      "▁этому": 2817,
      "▁busy.\n": 2818,
      "▁сум": 2819,
      "▁since": 2820,
      "ote": 2821,
      "▁kiss": 2822,
      "▁sum": 2823,
      "▁On": 2824,
      "▁неправ": 2825,
      "▁лет.\n": 2826,
      "▁вечерин": 2827,
      "ы?\n": 2828,
      "▁сви": 2829,
      "▁неё": 2830,
      "▁отказ": 2831,
      "▁write": 2832,
      "▁Everybody": 2833,
      "lve": 2834,
      "дя": 2835,
      "▁мальчи": 2836,
      "▁высо": 2837,
      "▁Maybe": 2838,
      "ff": 2839,
      "ily": 2840,
      "▁сне": 2841,
      "ная.\n": 2842,
      "▁бога": 2843,
      "▁Monday.\n": 2844,
      "owed": 2845,
      "▁agree": 2846,
      "osp": 2847,
      "▁ей": 2848,
      "▁life": 2849,
      "▁ним": 2850,
      "трел": 2851,
      "▁ужас": 2852,
      "und": 2853,
      "lep": 2854,
      "▁living": 2855,
      "▁asleep": 2856,
      "▁ад": 2857,
      "соб": 2858,
      "▁Зде": 2859,
      "▁before.\n": 2860,
      "▁exactly": 2861,
      "▁ше": 2862,
      "▁опас": 2863,
      "▁ищ": 2864,
      "руж": 2865,
      "▁Give": 2866,
      "▁phone": 2867,
      "med": 2868,
      "▁повери": 2869,
      "ence": 2870,
      "▁These": 2871,
      "▁книгу": 2872,
      "▁glass": 2873,
      "ы,": 2874,
      "▁снова": 2875,
      "ть?\n": 2876,
      "вез": 2877,
      "▁Здесь": 2878,
      "▁exc": 2879,
      "▁tired": 2880,
      "▁сооб": 2881,
      "▁what's": 2882,
      "▁наверное,": 2883,
      "ely": 2884,
      "ss": 2885,
      "▁door.\n": 2886,
      "гие": 2887,
      "▁вопрос.\n": 2888,
      "▁семь": 2889,
      "лом": 2890,
      "кан": 2891,
      "шь.\n": 2892,
      "▁цвет": 2893,
      "p.\n": 2894,
      "▁bed": 2895,
      "icyc": 2896,
      "pid": 2897,
      "▁полож": 2898,
      "кий": 2899,
      "ятся": 2900,
      "▁остаться": 2901,
      "em": 2902,
      "▁ready": 2903,
      "▁2:30": 2904,
      "▁true.\n": 2905,
      "ов": 2906,
      "▁mil": 2907,
      "▁ос": 2908,
      "▁этом.\n": 2909,
      "вести": 2910,
      "▁деся": 2911,
      "ful.\n": 2912,
      "▁easy": 2913,
      "ов.\n": 2914,
      "▁ди": 2915,
      "кз": 2916,
      "▁song": 2917,
      "деть.\n": 2918,
      "▁Ку": 2919,
      "▁helped": 2920,
      "▁Из": 2921,
      "▁children.\n": 2922,
      "▁favorite": 2923,
      "les": 2924,
      "hile": 2925,
      "▁down.\n": 2926,
      "00": 2927,
      "▁near": 2928,
      "▁word": 2929,
      "▁stupid": 2930,
      "▁strang": 2931,
      "▁law": 2932,
      "▁наход": 2933,
      "▁everything.\n": 2934,
      "▁In": 2935,
      "▁привы": 2936,
      "▁You'll": 2937,
      "▁train": 2938,
      "▁трудно": 2939,
      "br": 2940,
      "же.\n": 2941,
      "пал": 2942,
      "▁ри": 2943,
      "ason": 2944,
      "▁ан": 2945,
      "▁дня": 2946,
      "▁pres": 2947,
      "▁своё": 2948,
      "или?\n": 2949,
      "▁OK": 2950,
      "▁teacher": 2951,
      "▁sister": 2952,
      "ther": 2953,
      "▁Боль": 2954,
      "▁Japan": 2955,
      "▁bicyc": 2956,
      "▁hosp": 2957,
      "▁Го": 2958,
      "▁thirty": 2959,
      "ент": 2960,
      "ans": 2961,
      "▁большо": 2962,
      "▁домой": 2963,
      "▁hospit": 2964,
      "▁меня,": 2965,
      "гази": 2966,
      "▁key": 2967,
      "▁по-французски": 2968,
      "▁accid": 2969,
      "▁hurt": 2970,
      "ub": 2971,
      "ить?\n": 2972,
      "▁flow": 2973,
      "▁explain": 2974,
      "▁внима": 2975,
      "▁nu": 2976,
      "▁тот": 2977,
      "▁оба": 2978,
      "▁разо": 2979,
      "▁water.\n": 2980,
      "▁turned": 2981,
      "▁истори": 2982,
      "ies.\n": 2983,
      "▁ate": 2984,
      "▁playing": 2985,
      "нет": 2986,
      "ст.\n": 2987,
      "▁отс": 2988,
      "▁самом": 2989,
      "▁правду.\n": 2990,
      "▁Раз": 2991,
      "▁you'll": 2992,
      "▁gone": 2993,
      "ните": 2994,
      "▁ob": 2995,
      "ло.\n": 2996,
      "▁встреч": 2997,
      "▁apolog": 2998,
      "s,": 2999,
      "мы": 3000,
      "▁никому": 3001,
      "▁деньги.\n": 3002,
      "▁married.\n": 3003,
      "▁дер": 3004,
      "кого": 3005,
      "▁lived": 3006,
      "▁water": 3007,
      "air": 3008,
      "вра": 3009,
      "▁я.\n": 3010,
      "нять": 3011,
      "▁lot.\n": 3012,
      "▁врач": 3013,
      "▁par": 3014,
      "▁stand": 3015,
      "▁люди": 3016,
      "чат": 3017,
      "алась": 3018,
      "app": 3019,
      "▁говорили": 3020,
      "ily.\n": 3021,
      "пасибо": 3022,
      "rew": 3023,
      "▁над": 3024,
      "▁было.\n": 3025,
      "▁box": 3026,
      "▁собираюсь": 3027,
      "joy": 3028,
      "▁занима": 3029,
      "▁conv": 3030,
      "▁laugh": 3031,
      "elt": 3032,
      "▁друзья": 3033,
      "лет": 3034,
      "▁оп": 3035,
      "▁having": 3036,
      "бот": 3037,
      "▁тер": 3038,
      "▁долго": 3039,
      "▁цен": 3040,
      "▁left.\n": 3041,
      "▁делать?\n": 3042,
      "руг": 3043,
      "сторо": 3044,
      "▁кури": 3045,
      "вые": 3046,
      "▁grand": 3047,
      "▁кое-что": 3048,
      "▁seri": 3049,
      "▁брат": 3050,
      "дить.\n": 3051,
      "жать": 3052,
      "▁прис": 3053,
      "▁сказал.\n": 3054,
      "ку?\n": 3055,
      "-за": 3056,
      "ю?\n": 3057,
      "кое": 3058,
      "▁spend": 3059,
      "ize": 3060,
      "ры.\n": 3061,
      "▁idea.\n": 3062,
      "▁помощь.\n": 3063,
      "вёл": 3064,
      "▁ушёл": 3065,
      "нец": 3066,
      "▁reg": 3067,
      "вето": 3068,
      "▁соба": 3069,
      "▁now?\n": 3070,
      "▁книгу.\n": 3071,
      "▁похоже,": 3072,
      "rect": 3073,
      "▁night": 3074,
      "▁отправ": 3075,
      "▁cons": 3076,
      "ick.\n": 3077,
      "шим": 3078,
      "▁matter": 3079,
      "▁Wh": 3080,
      "▁отли": 3081,
      "▁myself.\n": 3082,
      "▁твой": 3083,
      "▁замет": 3084,
      "▁while": 3085,
      "ance.\n": 3086,
      "▁Томом?\n": 3087,
      "▁случилось": 3088,
      "▁вместе.\n": 3089,
      "▁broke": 3090,
      "▁автобус": 3091,
      "▁най": 3092,
      "▁знаком": 3093,
      "▁expens": 3094,
      "▁крас": 3095,
      "вое": 3096,
      "▁Бы": 3097,
      "▁us?\n": 3098,
      "▁Может": 3099,
      "▁видел,": 3100,
      "▁enjoy": 3101,
      "ню.\n": 3102,
      "чёт": 3103,
      "▁ent": 3104,
      "▁son": 3105,
      "▁sent": 3106,
      "▁cut": 3107,
      "ance": 3108,
      "▁сказать.\n": 3109,
      "▁dou": 3110,
      "▁caught": 3111,
      "кото": 3112,
      ".\"\n": 3113,
      "ment.\n": 3114,
      "ха": 3115,
      "▁daught": 3116,
      "▁всю": 3117,
      "▁точно": 3118,
      "▁комп": 3119,
      "▁days.\n": 3120,
      "any": 3121,
      "▁Спасибо": 3122,
      "▁какой": 3123,
      "▁decis": 3124,
      "▁other.\n": 3125,
      "из": 3126,
      "шка": 3127,
      "▁end": 3128,
      "▁начина": 3129,
      "▁магази": 3130,
      "▁felt": 3131,
      "▁Нас": 3132,
      "▁liked": 3133,
      "▁himself": 3134,
      "▁видел.\n": 3135,
      "фон": 3136,
      "▁паль": 3137,
      "▁оде": 3138,
      "▁больниц": 3139,
      "▁выглядит": 3140,
      "▁fish": 3141,
      "▁лег": 3142,
      "▁нужен": 3143,
      "▁fore": 3144,
      "▁Was": 3145,
      "▁ябло": 3146,
      "▁слышал,": 3147,
      "▁dollar": 3148,
      "▁please": 3149,
      "▁узн": 3150,
      "▁talked": 3151,
      "▁живу": 3152,
      "▁makes": 3153,
      "▁head": 3154,
      "▁думает,": 3155,
      "▁последний": 3156,
      "ходи": 3157,
      "езжа": 3158,
      "angu": 3159,
      "тяб": 3160,
      "▁дом.\n": 3161,
      "▁теперь": 3162,
      "▁one.\n": 3163,
      "бой.\n": 3164,
      "▁люби": 3165,
      "▁работает": 3166,
      "ax": 3167,
      "ath": 3168,
      "▁Прости": 3169,
      "▁paid": 3170,
      "▁начал": 3171,
      "▁произошло.\n": 3172,
      "▁birth": 3173,
      "▁Which": 3174,
      "бил": 3175,
      "▁mind": 3176,
      "▁году": 3177,
      "▁smok": 3178,
      "рь": 3179,
      "▁way.\n": 3180,
      "▁улы": 3181,
      "нии.\n": 3182,
      "▁Буд": 3183,
      "▁coming": 3184,
      "▁доверя": 3185,
      "ёно": 3186,
      "▁вас.\n": 3187,
      "▁жизнь": 3188,
      "▁вместе": 3189,
      "\".\n": 3190,
      "▁них": 3191,
      "▁жал": 3192,
      "ctob": 3193,
      "▁Octob": 3194,
      "жу.\n": 3195,
      "лыш": 3196,
      "▁пис": 3197,
      "ность": 3198,
      "рой": 3199,
      "нии": 3200,
      "▁langu": 3201,
      "ети": 3202,
      "▁рано": 3203,
      "тия": 3204,
      "▁новый": 3205,
      "▁off.\n": 3206,
      "▁books": 3207,
      "▁Какой": 3208,
      "▁surprised": 3209,
      "ine.\n": 3210,
      "▁мал": 3211,
      "ited": 3212,
      "▁he?\n": 3213,
      "▁quick": 3214,
      "▁зову": 3215,
      "на?\n": 3216,
      "ков.\n": 3217,
      "ки?\n": 3218,
      "▁Where's": 3219,
      "▁become": 3220,
      "ому": 3221,
      "▁ключ": 3222,
      "льзо": 3223,
      "▁мне.\n": 3224,
      "▁Not": 3225,
      "used": 3226,
      "▁cold.\n": 3227,
      "▁сообщ": 3228,
      "▁мою": 3229,
      "▁student": 3230,
      "▁конц": 3231,
      "готов": 3232,
      "▁those": 3233,
      "▁сест": 3234,
      "▁октяб": 3235,
      "▁questions.\n": 3236,
      "▁2:30.\n": 3237,
      "ger": 3238,
      "▁killed": 3239,
      "▁wife": 3240,
      "▁Япо": 3241,
      "▁possi": 3242,
      "▁выб": 3243,
      "мотри": 3244,
      "▁обра": 3245,
      "▁будет.\n": 3246,
      "▁спе": 3247,
      "▁writ": 3248,
      "▁сих": 3249,
      "ise.\n": 3250,
      "енни": 3251,
      "▁lar": 3252,
      "▁thing.\n": 3253,
      "сь,": 3254,
      "асс": 3255,
      "▁рожд": 3256,
      "ьёз": 3257,
      "▁tall": 3258,
      "▁hor": 3259,
      "▁whether": 3260,
      "▁правиль": 3261,
      "▁играет": 3262,
      "▁return": 3263,
      "▁we're": 3264,
      "▁reason": 3265,
      "▁хочет,": 3266,
      "▁suspect": 3267,
      "▁older": 3268,
      "▁window": 3269,
      "▁придётся": 3270,
      "▁picture": 3271,
      "вет.\n": 3272,
      "▁Есть": 3273,
      "▁Canad": 3274,
      "▁занят.\n": 3275,
      "▁early.\n": 3276,
      "▁потерял": 3277,
      "▁ла": 3278,
      "▁ter": 3279,
      "ел.\n": 3280,
      "es?\n": 3281,
      "▁достаточно": 3282,
      "▁comm": 3283,
      "▁class": 3284,
      "▁машину": 3285,
      "▁dog.\n": 3286,
      "▁глаз": 3287,
      "зре": 3288,
      "▁bed.\n": 3289,
      "▁trou": 3290,
      "bt": 3291,
      "ort.\n": 3292,
      "▁nice": 3293,
      "▁weather": 3294,
      "▁Just": 3295,
      "роятно,": 3296,
      "old": 3297,
      "▁свя": 3298,
      "ant.\n": 3299,
      "тите": 3300,
      "fect": 3301,
      "▁mistake.\n": 3302,
      "▁которые": 3303,
      "▁breakf": 3304,
      "▁sorry": 3305,
      "▁полови": 3306,
      "ваться.\n": 3307,
      "▁foll": 3308,
      "▁fix": 3309,
      "▁ино": 3310,
      "рые": 3311,
      "ют,": 3312,
      "▁нравится.\n": 3313,
      "▁который": 3314,
      "▁единственный": 3315,
      "ched": 3316,
      "ever": 3317,
      "▁мно": 3318,
      "▁хорошая": 3319,
      "▁верн": 3320,
      "▁делает": 3321,
      "▁homewor": 3322,
      "▁безо": 3323,
      "▁школу.\n": 3324,
      "ство.\n": 3325,
      "▁doctor": 3326,
      "▁нео": 3327,
      "▁you,": 3328,
      "▁бе": 3329,
      "▁моего": 3330,
      "▁жить": 3331,
      "▁разре": 3332,
      "▁нами": 3333,
      "hes.\n": 3334,
      "ать,": 3335,
      "▁do?\n": 3336,
      "▁Пере": 3337,
      "▁так.\n": 3338,
      "ились.\n": 3339,
      "▁outs": 3340,
      "▁movi": 3341,
      "▁клас": 3342,
      "gry": 3343,
      "▁имен": 3344,
      "▁small": 3345,
      "▁поц": 3346,
      "▁прово": 3347,
      "▁me,": 3348,
      "▁clot": 3349,
      "обе": 3350,
      "▁U": 3351,
      "▁рад,": 3352,
      "▁Тому?\n": 3353,
      "▁говорить.\n": 3354,
      "▁поговорить.\n": 3355,
      "▁телефо": 3356,
      "▁прост": 3357,
      "ших": 3358,
      "▁нос": 3359,
      "az": 3360,
      "▁cry": 3361,
      "▁build": 3362,
      "▁Who's": 3363,
      "▁Лю": 3364,
      "ard.\n": 3365,
      "▁drun": 3366,
      "▁planning": 3367,
      "▁дверь.\n": 3368,
      "oup": 3369,
      "▁dream": 3370,
      "▁нельз": 3371,
      "▁born": 3372,
      "▁тех": 3373,
      "▁exam": 3374,
      "вало": 3375,
      "▁хотели": 3376,
      "ult.\n": 3377,
      "▁you've": 3378,
      "▁food": 3379,
      "ся?\n": 3380,
      "▁выбо": 3381,
      "▁отно": 3382,
      "▁шля": 3383,
      "▁good.\n": 3384,
      "ove": 3385,
      "ома": 3386,
      "ред": 3387,
      "▁ran": 3388,
      "▁place": 3389,
      "▁себ": 3390,
      "▁лучше.\n": 3391,
      "▁yesterday": 3392,
      "▁strong": 3393,
      "▁Откуда": 3394,
      "vie": 3395,
      "ал?\n": 3396,
      "▁bot": 3397,
      "▁Сейчас": 3398,
      "ких": 3399,
      "▁захо": 3400,
      "етесь": 3401,
      "▁feeling": 3402,
      "▁пойм": 3403,
      "▁snow": 3404,
      "▁promised": 3405,
      "дал.\n": 3406,
      "▁здо": 3407,
      "▁моё": 3408,
      "▁коман": 3409,
      "▁позна": 3410,
      "▁детей.\n": 3411,
      "▁заму": 3412,
      "вается": 3413,
      "▁alone": 3414,
      "▁man.\n": 3415,
      "▁смогу": 3416,
      "▁услыш": 3417,
      "▁hid": 3418,
      "▁ша": 3419,
      "▁хотела": 3420,
      "▁father.\n": 3421,
      "▁кофе.\n": 3422,
      "▁будете": 3423,
      "▁today?\n": 3424,
      "▁прямо": 3425,
      "▁пона": 3426,
      "▁потому": 3427,
      "▁supposed": 3428,
      "li": 3429,
      "▁war": 3430,
      "лагода": 3431,
      "irt": 3432,
      "▁своим": 3433,
      "тель.\n": 3434,
      "▁книга": 3435,
      "раздо": 3436,
      "▁познаком": 3437,
      "▁гораздо": 3438,
      "▁As": 3439,
      "▁wrote": 3440,
      "▁такое": 3441,
      "▁month": 3442,
      "▁выигра": 3443,
      "nis": 3444,
      "▁спрос": 3445,
      "▁bab": 3446,
      "рое": 3447,
      "led": 3448,
      "яв": 3449,
      "▁mom": 3450,
      "▁ки": 3451,
      "▁стать": 3452,
      "rist": 3453,
      "▁tick": 3454,
      "▁тан": 3455,
      "лага": 3456,
      "▁сможет": 3457,
      "▁Возможно": 3458,
      "▁иск": 3459,
      "▁tennis": 3460,
      "▁Мари": 3461,
      "▁sal": 3462,
      "▁Мэри?\n": 3463,
      "▁думаете,": 3464,
      "дит.\n": 3465,
      "ён.\n": 3466,
      "шие": 3467,
      "▁spent": 3468,
      "▁adm": 3469,
      "кла": 3470,
      "▁tired.\n": 3471,
      "▁уда": 3472,
      "▁ред": 3473,
      "▁long.\n": 3474,
      "▁чуть": 3475,
      "▁finished": 3476,
      "▁later.\n": 3477,
      "▁Christ": 3478,
      "ock": 3479,
      "зво": 3480,
      "▁K": 3481,
      "hed.\n": 3482,
      "▁тенни": 3483,
      "▁тридцать": 3484,
      "▁add": 3485,
      "▁comput": 3486,
      "▁сидел": 3487,
      "▁нужно.\n": 3488,
      "▁видели": 3489,
      "▁поезд": 3490,
      "жит": 3491,
      "▁name.\n": 3492,
      "▁smil": 3493,
      "▁became": 3494,
      "▁рассказал": 3495,
      "▁Можете": 3496,
      "ыл": 3497,
      "▁ном": 3498,
      "▁бли": 3499,
      "▁Sh": 3500,
      "▁завтра.\n": 3501,
      "▁возра": 3502,
      "▁mine.\n": 3503,
      "▁рассказы": 3504,
      "▁безопас": 3505,
      "дно.\n": 3506,
      "▁пообе": 3507,
      "▁прода": 3508,
      "боль": 3509,
      "▁Подо": 3510,
      "▁likely": 3511,
      "▁Be": 3512,
      "▁bus.\n": 3513,
      "▁любим": 3514,
      "▁проблема.\n": 3515,
      "шую": 3516,
      "▁tonight.\n": 3517,
      "▁чувство": 3518,
      "▁hungry.\n": 3519,
      "vel": 3520,
      "▁поряд": 3521,
      "▁ele": 3522,
      "▁Поли": 3523,
      "▁кажется,": 3524,
      "▁треть": 3525,
      "ck.\n": 3526,
      "пус": 3527,
      "rell": 3528,
      "▁leg": 3529,
      "▁важно": 3530,
      "▁coffee.\n": 3531,
      "▁смер": 3532,
      "теше": 3533,
      "▁вышел": 3534,
      "ross": 3535,
      "▁Чем": 3536,
      "ешь.\n": 3537,
      "▁сторо": 3538,
      "▁fire": 3539,
      "▁Думаете,": 3540,
      "▁Возможно,": 3541,
      "▁pat": 3542,
      "лось": 3543,
      "▁abs": 3544,
      "▁sell": 3545,
      "▁She's": 3546,
      "uss": 3547,
      "een": 3548,
      "це.\n": 3549,
      "я?\n": 3550,
      "▁table.\n": 3551,
      "▁чита": 3552,
      "▁знаю.\n": 3553,
      "▁собой": 3554,
      "mbrell": 3555,
      "▁there?\n": 3556,
      "▁дождь.\n": 3557,
      "▁danger": 3558,
      "ены": 3559,
      "▁pen": 3560,
      "▁inc": 3561,
      "▁umbrell": 3562,
      "▁did.\n": 3563,
      "пор": 3564,
      "itting": 3565,
      "▁оставил": 3566,
      "▁doubt": 3567,
      "вели": 3568,
      "▁зон": 3569,
      "▁ук": 3570,
      "▁знаешь,": 3571,
      "room": 3572,
      "▁кана": 3573,
      "▁стол": 3574,
      "▁clos": 3575,
      "▁friend.\n": 3576,
      "ству": 3577,
      "▁red": 3578,
      "▁знаем,": 3579,
      "▁19": 3580,
      "ject": 3581,
      "ёх": 3582,
      "▁пора": 3583,
      "▁года.\n": 3584,
      "▁better.\n": 3585,
      "▁серьёз": 3586,
      "▁through": 3587,
      "рок.\n": 3588,
      "ass.\n": 3589,
      "▁воло": 3590,
      "▁team": 3591,
      "бав": 3592,
      "▁один.\n": 3593,
      "▁cup": 3594,
      "нить.\n": 3595,
      "▁телефон": 3596,
      "▁tri": 3597,
      "▁одна": 3598,
      "роме": 3599,
      "▁дерев": 3600,
      "цу": 3601,
      "▁мной.\n": 3602,
      "it.\n": 3603,
      "▁high": 3604,
      "ж.\n": 3605,
      "▁making": 3606,
      "▁почи": 3607,
      "ot.\n": 3608,
      "lfri": 3609,
      "▁ли?\n": 3610,
      "▁идея.\n": 3611,
      "жда": 3612,
      "то.\n": 3613,
      "▁попы": 3614,
      "▁би": 3615,
      "▁ly": 3616,
      "ither": 3617,
      "▁уех": 3618,
      "▁that,": 3619,
      "▁смотри": 3620,
      "▁early": 3621,
      "длен": 3622,
      "▁Так": 3623,
      "▁мам": 3624,
      "▁тю": 3625,
      "ating": 3626,
      "▁close": 3627,
      "▁сделали.\n": 3628,
      "▁watching": 3629,
      "erv": 3630,
      "пода": 3631,
      "▁чувству": 3632,
      "▁party.\n": 3633,
      "▁arrived": 3634,
      "▁утром": 3635,
      "▁прошлой": 3636,
      "▁англий": 3637,
      "рался": 3638,
      "▁Take": 3639,
      "ено": 3640,
      "▁Both": 3641,
      "▁reading": 3642,
      "▁увидел": 3643,
      "▁ждать.\n": 3644,
      "▁понадоб": 3645,
      "ню,": 3646,
      "▁sim": 3647,
      "▁sound": 3648,
      "▁sign": 3649,
      "ался.\n": 3650,
      "▁мя": 3651,
      "коло": 3652,
      "▁руба": 3653,
      "▁получил": 3654,
      "mas": 3655,
      "ру.\n": 3656,
      "яли": 3657,
      "▁beh": 3658,
      "▁kept": 3659,
      "бол": 3660,
      "▁weren't": 3661,
      "▁прекрас": 3662,
      "ress.\n": 3663,
      "▁предпо": 3664,
      "▁stayed": 3665,
      "▁ряд": 3666,
      "ese": 3667,
      "▁вов": 3668,
      "▁teacher.\n": 3669,
      "▁написал": 3670,
      "▁please.\n": 3671,
      "▁спас": 3672,
      "йтесь": 3673,
      "▁whole": 3674,
      "▁hands": 3675,
      "▁путеше": 3676,
      "▁Christmas": 3677,
      "▁спис": 3678,
      "▁longer": 3679,
      "▁полици": 3680,
      "▁компью": 3681,
      "ест": 3682,
      "▁поза": 3683,
      "▁teach": 3684,
      "▁John": 3685,
      "▁bag": 3686,
      "тить": 3687,
      "alk.\n": 3688,
      "▁спать.\n": 3689,
      "▁French?\n": 3690,
      "▁одно": 3691,
      "▁такая": 3692,
      "▁опозда": 3693,
      "▁му": 3694,
      "ровал": 3695,
      "вают": 3696,
      "▁причи": 3697,
      "ешь?\n": 3698,
      "вай": 3699,
      "▁обрат": 3700,
      "▁из-за": 3701,
      "▁worry": 3702,
      "▁times": 3703,
      "ely.\n": 3704,
      "▁discuss": 3705,
      "▁goes": 3706,
      "▁loves": 3707,
      "▁girlfri": 3708,
      "▁family.\n": 3709,
      "▁complet": 3710,
      "▁taking": 3711,
      "▁done.\n": 3712,
      "▁две": 3713,
      "нее.\n": 3714,
      "▁want.\n": 3715,
      "лек": 3716,
      "rop": 3717,
      "▁раз.\n": 3718,
      "▁brought": 3719,
      "▁finish": 3720,
      "▁brok": 3721,
      "▁coffee": 3722,
      "▁малень": 3723,
      "aur": 3724,
      "ди.\n": 3725,
      "▁бума": 3726,
      "▁heal": 3727,
      "лез": 3728,
      "ке?\n": 3729,
      "▁tou": 3730,
      "▁влю": 3731,
      "▁dress": 3732,
      "▁sugg": 3733,
      "▁делал.\n": 3734,
      "▁trave": 3735,
      "▁lea": 3736,
      "▁нельзя": 3737,
      "▁одолж": 3738,
      "ions.\n": 3739,
      "▁disapp": 3740,
      "лит": 3741,
      "▁сделали": 3742,
      "▁anyone.\n": 3743,
      "▁этого.\n": 3744,
      "▁прав.\n": 3745,
      "▁suggest": 3746,
      "eal": 3747,
      "les.\n": 3748,
      "гу.\n": 3749,
      "▁sometim": 3750,
      "usb": 3751,
      "▁представ": 3752,
      "▁комнате": 3753,
      "▁ак": 3754,
      "▁full": 3755,
      "▁was.\n": 3756,
      "ку,": 3757,
      "▁препода": 3758,
      "▁unc": 3759,
      "ug": 3760,
      "рен": 3761,
      "еты": 3762,
      "ила.\n": 3763,
      "лин": 3764,
      "▁Её": 3765,
      "▁jok": 3766,
      "▁old.\n": 3767,
      "▁взял": 3768,
      "▁слуш": 3769,
      "▁тебя.\n": 3770,
      "▁редко": 3771,
      "▁dep": 3772,
      "ками.\n": 3773,
      "▁сосе": 3774,
      "▁шан": 3775,
      "▁eating": 3776,
      "▁которую": 3777,
      "▁ребён": 3778,
      "▁flo": 3779,
      "▁catch": 3780,
      "▁ребёно": 3781,
      "▁бил": 3782,
      "вол": 3783,
      "▁изви": 3784,
      "▁студ": 3785,
      "body.\n": 3786,
      "▁цел": 3787,
      "▁people.\n": 3788,
      "▁movie": 3789,
      "нь.\n": 3790,
      "▁det": 3791,
      "▁фут": 3792,
      "▁else.\n": 3793,
      "▁Куда": 3794,
      "дём": 3795,
      "▁med": 3796,
      "▁кроме": 3797,
      "erm": 3798,
      "▁против": 3799,
      "▁not.\n": 3800,
      "▁pris": 3801,
      "▁Просто": 3802,
      "▁плак": 3803,
      "▁совершенно": 3804,
      "▁Джо": 3805,
      "▁находится": 3806,
      "ёг": 3807,
      "▁say.\n": 3808,
      "erve": 3809,
      "ках.\n": 3810,
      "емся": 3811,
      "▁деле": 3812,
      "▁посо": 3813,
      "▁сама": 3814,
      "▁нужны": 3815,
      "▁mess": 3816,
      "▁free": 3817,
      "▁in.\n": 3818,
      "ated.\n": 3819,
      "▁году.\n": 3820,
      "▁вол": 3821,
      "▁вероятно,": 3822,
      "▁hadn't": 3823,
      "▁ups": 3824,
      "▁идти.\n": 3825,
      "▁opened": 3826,
      "тят": 3827,
      "▁sick.\n": 3828,
      "▁сейчас.\n": 3829,
      "вот": 3830,
      "▁Вчера": 3831,
      "▁works": 3832,
      "▁помощи.\n": 3833,
      "▁имеет": 3834,
      "▁происходит.\n": 3835,
      "▁differen": 3836,
      "▁поцело": 3837,
      "ждо": 3838,
      "юсь.\n": 3839,
      "▁обя": 3840,
      "▁столько": 3841,
      "▁family": 3842,
      "▁hotel": 3843,
      "▁тюрь": 3844,
      "f.\n": 3845,
      "▁stre": 3846,
      "▁Похо": 3847,
      "▁вам,": 3848,
      "▁трёх": 3849,
      "таться": 3850,
      "▁arrest": 3851,
      "▁guit": 3852,
      "▁dinner.\n": 3853,
      "омне": 3854,
      "нуть": 3855,
      "▁какие": 3856,
      "▁мате": 3857,
      "▁испо": 3858,
      "▁clean": 3859,
      "▁lunch": 3860,
      "▁serious": 3861,
      "▁вернёт": 3862,
      "ical": 3863,
      "ention": 3864,
      "▁everybody": 3865,
      "аль,": 3866,
      "▁Everything": 3867,
      "▁одино": 3868,
      "▁restaur": 3869,
      "▁долларов.\n": 3870,
      "которые": 3871,
      "▁Я,": 3872,
      "▁бан": 3873,
      "▁gard": 3874,
      "▁husb": 3875,
      "лючи": 3876,
      "▁лишь": 3877,
      "▁усп": 3878,
      "▁move": 3879,
      "▁вну": 3880,
      "▁тогда": 3881,
      "▁ждать": 3882,
      "▁хотим": 3883,
      "▁window.\n": 3884,
      "▁Бостоне?\n": 3885,
      "▁different": 3886,
      "▁покуп": 3887,
      "▁behind": 3888,
      "н?\n": 3889,
      "▁cam": 3890,
      "ил,": 3891,
      "конец": 3892,
      "▁работать": 3893,
      "▁уби": 3894,
      "▁stopped": 3895,
      "▁airp": 3896,
      "mer.\n": 3897,
      "▁осторо": 3898,
      "стре": 3899,
      "▁hit": 3900,
      "▁тя": 3901,
      "▁зара": 3902,
      "▁sold": 3903,
      "▁coll": 3904,
      "▁Дайте": 3905,
      "▁busin": 3906,
      "▁случилось.\n": 3907,
      "▁meeting": 3908,
      "▁старше": 3909,
      "▁короб": 3910,
      "▁ac": 3911,
      "раться": 3912,
      "ему.\n": 3913,
      "▁прощ": 3914,
      "▁ваша": 3915,
      "▁кто-нибудь": 3916,
      "▁proud": 3917,
      "▁школу": 3918,
      "▁person.\n": 3919,
      "▁плать": 3920,
      "▁рыб": 3921,
      "ian.\n": 3922,
      "пло": 3923,
      "род": 3924,
      "▁приехал": 3925,
      "▁yourself.\n": 3926,
      "▁Pe": 3927,
      "▁давно": 3928,
      "▁такого": 3929,
      "▁began": 3930,
      "кзам": 3931,
      "▁«": 3932,
      "▁чи": 3933,
      "▁Somet": 3934,
      "▁agre": 3935,
      "▁возвра": 3936,
      "▁swe": 3937,
      "▁Какая": 3938,
      "▁волос": 3939,
      "▁рядом": 3940,
      "▁сделал?\n": 3941,
      "ump": 3942,
      "▁сказать,": 3943,
      "where": 3944,
      "▁bott": 3945,
      "▁номер": 3946,
      "ани": 3947,
      "▁star": 3948,
      "▁свобо": 3949,
      "▁тыся": 3950,
      "▁brother.\n": 3951,
      "▁ехать": 3952,
      "du": 3953,
      "зу": 3954,
      "▁пять": 3955,
      "▁are.\n": 3956,
      "▁сек": 3957,
      "▁walked": 3958,
      "▁201": 3959,
      "▁большой": 3960,
      "▁улыб": 3961,
      "▁пь": 3962,
      "тесь": 3963,
      "ное.\n": 3964,
      "роде": 3965,
      "ства.\n": 3966,
      "▁for.\n": 3967,
      "дишь": 3968,
      "▁ресто": 3969,
      "▁Look": 3970,
      "печат": 3971,
      "▁комнате.\n": 3972,
      "▁мало": 3973,
      "▁зу": 3974,
      "▁inter": 3975,
      "▁приглас": 3976,
      "▁answer.\n": 3977,
      "▁changed": 3978,
      "зды": 3979,
      "▁мн": 3980,
      "▁food.\n": 3981,
      "▁park": 3982,
      "▁работы.\n": 3983,
      "▁вернулся": 3984,
      "▁человек": 3985,
      "▁hours": 3986,
      "▁слуша": 3987,
      "▁Here": 3988,
      "▁Put": 3989,
      "▁больше,": 3990,
      "▁работает.\n": 3991,
      "▁perfect": 3992,
      "▁заниматься.\n": 3993,
      "▁follow": 3994,
      "руд": 3995,
      "▁days": 3996,
      "orrect": 3997,
      "▁извест": 3998,
      "▁rul": 3999,
      "▁воврем": 4000,
      "in.\n": 4001,
      "сты": 4002,
      "▁ass": 4003,
      "▁about.\n": 4004,
      "▁gets": 4005,
      "▁аре": 4006,
      "▁работать.\n": 4007,
      "itten": 4008,
      "▁собирается": 4009,
      "▁sleep.\n": 4010,
      "▁понял": 4011,
      "▁mistak": 4012,
      "▁minutes.\n": 4013,
      "▁doctor.\n": 4014,
      "▁against": 4015,
      "▁следующей": 4016,
      "▁One": 4017,
      "▁опять": 4018,
      "▁Ш": 4019,
      "раши": 4020,
      "▁поэ": 4021,
      "▁luck": 4022,
      "▁pian": 4023,
      "▁emp": 4024,
      "▁голод": 4025,
      "бол.\n": 4026,
      "▁yourself": 4027,
      "▁други": 4028,
      "▁перест": 4029,
      "▁speaks": 4030,
      "▁выиг": 4031,
      "▁мужчи": 4032,
      "ball": 4033,
      "м?\n": 4034,
      "▁six": 4035,
      "когда": 4036,
      "рез": 4037,
      "нит": 4038,
      "▁шут": 4039,
      "▁его.\n": 4040,
      "▁планирует": 4041,
      "▁ill": 4042,
      "▁fall": 4043,
      "▁five": 4044,
      "▁Her": 4045,
      "▁так,": 4046,
      "▁worked": 4047,
      "▁новую": 4048,
      "ended": 4049,
      "чес": 4050,
      "▁Now": 4051,
      "▁расстро": 4052,
      "▁Stop": 4053,
      "▁complain": 4054,
      "▁телевизор.\n": 4055,
      "▁письмо.\n": 4056,
      "ge.\n": 4057,
      "▁могут": 4058,
      "▁conf": 4059,
      "▁книги": 4060,
      "▁plan.\n": 4061,
      "▁десять": 4062,
      "▁ней": 4063,
      "▁кри": 4064,
      "▁Has": 4065,
      "▁train.\n": 4066,
      "▁Come": 4067,
      "▁самый": 4068,
      "▁eat.\n": 4069,
      "▁там.\n": 4070,
      "▁Ваш": 4071,
      "▁Someone": 4072,
      "тил": 4073,
      "▁наб": 4074,
      "▁преду": 4075,
      "вым.\n": 4076,
      "цу.\n": 4077,
      "ит?\n": 4078,
      "▁жар": 4079,
      "▁любо": 4080,
      "▁хотите.\n": 4081,
      "▁сделает.\n": 4082,
      "▁взять": 4083,
      "▁понедельник.\n": 4084,
      "га.\n": 4085,
      "ек": 4086,
      "▁экзам": 4087,
      "тельно.\n": 4088,
      "▁Go": 4089,
      "▁прошлом": 4090,
      "▁Было": 4091,
      "▁terri": 4092,
      "зрева": 4093,
      "▁рубаш": 4094,
      "▁пож": 4095,
      "▁Were": 4096,
      "нуть.\n": 4097,
      "▁loved": 4098,
      "▁situ": 4099,
      "ween": 4100,
      "фис": 4101,
      "ont": 4102,
      "▁col": 4103,
      "▁cap": 4104,
      "ровать": 4105,
      "ами": 4106,
      "▁пример": 4107,
      "▁Соб": 4108,
      "▁вижу": 4109,
      "mber.\n": 4110,
      "▁одного": 4111,
      "▁black": 4112,
      "▁hours.\n": 4113,
      "▁Джон": 4114,
      "▁Похоже,": 4115,
      "-ли": 4116,
      "вока": 4117,
      "ка,": 4118,
      "▁ready.\n": 4119,
      "нул.\n": 4120,
      "-либо": 4121,
      "▁del": 4122,
      "▁гости": 4123,
      "▁An": 4124,
      "▁telling": 4125,
      "▁comes": 4126,
      "▁способ": 4127,
      "▁month.\n": 4128,
      "cess": 4129,
      "жет.\n": 4130,
      "▁нап": 4131,
      "▁знает.\n": 4132,
      "▁жил": 4133,
      "▁такие": 4134,
      "ду?\n": 4135,
      "кую": 4136,
      "▁Завтра": 4137,
      "▁сложно": 4138,
      "▁открыл": 4139,
      "▁французский": 4140,
      "цен": 4141,
      "▁nor": 4142,
      "▁уп": 4143,
      "▁зай": 4144,
      "▁egg": 4145,
      "▁прийти": 4146,
      "▁нравятся": 4147,
      "▁плавать.\n": 4148,
      "▁between": 4149,
      "▁твоя": 4150,
      "▁finally": 4151,
      "▁попробо": 4152,
      "▁regret": 4153,
      "▁Простите,": 4154,
      "пар": 4155,
      "хи": 4156,
      "▁поед": 4157,
      "▁около": 4158,
      "anc": 4159,
      "ства": 4160,
      "▁выз": 4161,
      "▁once": 4162,
      "▁neigh": 4163,
      "▁призна": 4164,
      "▁сказали": 4165,
      "▁следо": 4166,
      "▁guy": 4167,
      "▁Разве": 4168,
      "▁neighb": 4169,
      "вы.\n": 4170,
      "▁less": 4171,
      "▁pap": 4172,
      "▁приготов": 4173,
      "руш": 4174,
      "▁тол": 4175,
      "вед": 4176,
      "ople": 4177,
      "ение?\n": 4178,
      "▁встреча": 4179,
      "▁pati": 4180,
      "чный": 4181,
      "▁пья": 4182,
      "▁sitting": 4183,
      "▁дне": 4184,
      "ении.\n": 4185,
      "▁Кто-нибудь": 4186,
      "raz": 4187,
      "разу": 4188,
      "▁сильно": 4189,
      "meric": 4190,
      "▁People": 4191,
      "щал": 4192,
      "▁опа": 4193,
      "▁это,": 4194,
      "▁thinking": 4195,
      "▁вой": 4196,
      "▁вещ": 4197,
      "вался": 4198,
      "▁шо": 4199,
      "▁lawy": 4200,
      "▁легко": 4201,
      "full": 4202,
      "▁sick": 4203,
      "▁тра": 4204,
      "дела": 4205,
      "ам.\n": 4206,
      "▁we'll": 4207,
      "▁друга.\n": 4208,
      "▁showed": 4209,
      "▁swimm": 4210,
      "bed": 4211,
      "▁inst": 4212,
      "▁ради": 4213,
      "иту": 4214,
      "вид": 4215,
      "▁Дети": 4216,
      "▁sun": 4217,
      "▁along": 4218,
      "ские": 4219,
      "▁music": 4220,
      "▁hospital.\n": 4221,
      "so": 4222,
      "ue.\n": 4223,
      "ья.\n": 4224,
      "▁am.\n": 4225,
      "▁pun": 4226,
      "▁бол": 4227,
      "▁нечего": 4228,
      "▁borr": 4229,
      "▁base": 4230,
      "▁Americ": 4231,
      "▁trans": 4232,
      "▁books.\n": 4233,
      "▁да?\n": 4234,
      "▁truth": 4235,
      "▁advice.\n": 4236,
      "▁travel": 4237,
      "▁tax": 4238,
      "▁сел": 4239,
      "▁сда": 4240,
      "▁cert": 4241,
      "▁nam": 4242,
      "▁myself": 4243,
      "нула": 4244,
      "▁любя": 4245,
      "▁wait.\n": 4246,
      "▁mind.\n": 4247,
      "▁forgive": 4248,
      "▁заслу": 4249,
      "▁предупре": 4250,
      "▁офис": 4251,
      "▁Many": 4252,
      "▁таким": 4253,
      "▁газ": 4254,
      "▁ris": 4255,
      "▁Бостона.\n": 4256,
      "▁said.\n": 4257,
      "▁smell": 4258,
      "▁hand.\n": 4259,
      "ized": 4260,
      "▁минут": 4261,
      "▁минут.\n": 4262,
      "▁refused": 4263,
      "▁опазды": 4264,
      "ire.\n": 4265,
      "use": 4266,
      "▁совет": 4267,
      "сите": 4268,
      "▁сделаю": 4269,
      "▁После": 4270,
      "no": 4271,
      "кро": 4272,
      "оте": 4273,
      "▁gif": 4274,
      "▁тру": 4275,
      "ень.\n": 4276,
      "▁хотелось": 4277,
      "▁справ": 4278,
      "▁сегодня.\n": 4279,
      "▁open.\n": 4280,
      "▁Get": 4281,
      "iction": 4282,
      "▁eyes": 4283,
      "▁Ве": 4284,
      "▁рав": 4285,
      "▁libr": 4286,
      "▁каждо": 4287,
      "aliz": 4288,
      "▁более": 4289,
      "▁адвока": 4290,
      "▁2013": 4291,
      "fer": 4292,
      "▁half": 4293,
      "▁идёт": 4294,
      "▁моим": 4295,
      "ich.\n": 4296,
      "▁real": 4297,
      "дох": 4298,
      "▁жду": 4299,
      "▁lose": 4300,
      "▁bring": 4301,
      "▁хорошо.\n": 4302,
      "▁вернуться": 4303,
      "▁TV.\n": 4304,
      "▁привык": 4305,
      "▁терп": 4306,
      "▁именно": 4307,
      "yp": 4308,
      "▁необ": 4309,
      "ons": 4310,
      "▁уход": 4311,
      "вод": 4312,
      "▁It'll": 4313,
      "▁Ему": 4314,
      "илась.\n": 4315,
      "▁opin": 4316,
      "▁John.\n": 4317,
      "тря": 4318,
      "юда.\n": 4319,
      "▁es": 4320,
      "▁wall": 4321,
      "▁настоя": 4322,
      "вор": 4323,
      "нем": 4324,
      "▁приех": 4325,
      "▁съел": 4326,
      "блиоте": 4327,
      "▁accident.\n": 4328,
      "▁отнош": 4329,
      "ге": 4330,
      "з.\n": 4331,
      "цы": 4332,
      "▁warn": 4333,
      "▁вкус": 4334,
      "▁set": 4335,
      "▁pie": 4336,
      "▁утро": 4337,
      "нач": 4338,
      "▁тро": 4339,
      "▁придёт.\n": 4340,
      "▁Mary?\n": 4341,
      "шь?\n": 4342,
      "▁нас.\n": 4343,
      "▁could've": 4344,
      "▁хват": 4345,
      "▁неделе": 4346,
      "▁порядке.\n": 4347,
      "▁тяж": 4348,
      "ена.\n": 4349,
      "▁уго": 4350,
      "▁angry.\n": 4351,
      "▁Mond": 4352,
      "▁can.\n": 4353,
      "▁ext": 4354,
      "▁Мои": 4355,
      "▁нами.\n": 4356,
      "▁кому": 4357,
      "▁увидеть": 4358,
      "▁Thanks": 4359,
      "▁asleep.\n": 4360,
      "еко": 4361,
      "цей": 4362,
      "▁Ц": 4363,
      "раб": 4364,
      "рить": 4365,
      "ногие": 4366,
      "▁times.\n": 4367,
      "▁def": 4368,
      "▁понятия": 4369,
      "▁together": 4370,
      "where.\n": 4371,
      "▁Рожде": 4372,
      "лю.\n": 4373,
      "▁post": 4374,
      "▁моих": 4375,
      "▁for?\n": 4376,
      "▁отве": 4377,
      "▁намного": 4378,
      "ело.\n": 4379,
      "дцать.\n": 4380,
      "ogn": 4381,
      "form": 4382,
      "av": 4383,
      "dd": 4384,
      "ord": 4385,
      "▁будут": 4386,
      "▁какое": 4387,
      "зательно": 4388,
      "▁Ра": 4389,
      "▁studying": 4390,
      "▁разреш": 4391,
      "oint": 4392,
      "ric": 4393,
      "▁taught": 4394,
      "▁Обе": 4395,
      "▁Скажи": 4396,
      "▁Для": 4397,
      "▁ап": 4398,
      "▁решение.\n": 4399,
      "▁chance": 4400,
      "▁moved": 4401,
      "▁recogn": 4402,
      "▁длин": 4403,
      "▁qui": 4404,
      "▁Aren't": 4405,
      "▁accept": 4406,
      "▁следующий": 4407,
      "cked": 4408,
      "▁вроде": 4409,
      "▁воды.\n": 4410,
      "▁also": 4411,
      "ife": 4412,
      "▁спи": 4413,
      "▁ваши": 4414,
      "▁vo": 4415,
      "ach.\n": 4416,
      "▁understand.\n": 4417,
      "▁домаш": 4418,
      "▁mother.\n": 4419,
      "▁неправиль": 4420,
      "▁large": 4421,
      "ving.\n": 4422,
      "чень": 4423,
      "▁мень": 4424,
      "▁angry": 4425,
      "selve": 4426,
      "▁обс": 4427,
      "▁сту": 4428,
      "▁должна": 4429,
      "▁Кто-то": 4430,
      "▁convin": 4431,
      "▁скры": 4432,
      "▁correct": 4433,
      "▁ест": 4434,
      "▁Оно": 4435,
      "▁кух": 4436,
      "▁spoke": 4437,
      "▁шум": 4438,
      "▁Расс": 4439,
      "▁wine.\n": 4440,
      "▁помню,": 4441,
      "▁лучше,": 4442,
      "▁afterno": 4443,
      "▁enough.\n": 4444,
      "▁simp": 4445,
      "▁tak": 4446,
      "▁хотят": 4447,
      "▁еще": 4448,
      "▁любите": 4449,
      "▁eaten": 4450,
      "пера": 4451,
      "▁слова": 4452,
      "▁понимаю,": 4453,
      "▁людей": 4454,
      "▁Полиция": 4455,
      "▁пого": 4456,
      "ing,": 4457,
      "льта": 4458,
      "veral": 4459,
      "шин": 4460,
      "▁several": 4461,
      "▁говорите": 4462,
      "▁already.\n": 4463,
      "▁жизни": 4464,
      "▁interested": 4465,
      "▁chair": 4466,
      "▁сразу": 4467,
      "▁напу": 4468,
      "воч": 4469,
      "▁прине": 4470,
      "▁short": 4471,
      "▁слом": 4472,
      "▁fail": 4473,
      "▁swim.\n": 4474,
      "▁younger": 4475,
      "▁missed": 4476,
      "▁понедельник": 4477,
      "ых": 4478,
      "▁слож": 4479,
      "▁bread": 4480,
      "▁настро": 4481,
      "леб": 4482,
      "вать?\n": 4483,
      "▁\"I": 4484,
      "▁жизни.\n": 4485,
      "▁true": 4486,
      "▁школе.\n": 4487,
      "▁secret": 4488,
      "▁leaving": 4489,
      "чет": 4490,
      "▁чёр": 4491,
      "ках": 4492,
      "лон": 4493,
      "▁think.\n": 4494,
      "ly,": 4495,
      "▁гита": 4496,
      "▁знал": 4497,
      "▁Дай": 4498,
      "▁music.\n": 4499,
      "▁посовето": 4500,
      "▁cal": 4501,
      "▁заме": 4502,
      "ван": 4503,
      "порт": 4504,
      "▁rid": 4505,
      "▁would've": 4506,
      "▁автомо": 4507,
      "▁студен": 4508,
      "итуа": 4509,
      "▁зда": 4510,
      "ил?\n": 4511,
      "▁это?\n": 4512,
      "кар": 4513,
      "▁notic": 4514,
      "▁place.\n": 4515,
      "▁спраши": 4516,
      "▁неделю.\n": 4517,
      "▁жизнь.\n": 4518,
      "▁learned": 4519,
      "▁самол": 4520,
      "▁говорю": 4521,
      "▁promise": 4522,
      "itche": 4523,
      "▁библиоте": 4524,
      "▁ve": 4525,
      "▁cry.\n": 4526,
      "▁kitche": 4527,
      "vers": 4528,
      "▁живот": 4529,
      "▁Хотите": 4530,
      "▁Un": 4531,
      "йся": 4532,
      "чёл": 4533,
      "▁пас": 4534,
      "▁Тво": 4535,
      "▁more.\n": 4536,
      "▁поб": 4537,
      "▁нашей": 4538,
      "тин": 4539,
      "urd": 4540,
      "▁waited": 4541,
      "▁prot": 4542,
      "▁выглядел": 4543,
      "▁easy.\n": 4544,
      "▁родителя": 4545,
      "той.\n": 4546,
      "▁впечат": 4547,
      "▁men": 4548,
      "шее": 4549,
      "▁played": 4550,
      "▁grow": 4551,
      "▁parents.\n": 4552,
      "▁choice.\n": 4553,
      "▁ticket": 4554,
      "▁Monday": 4555,
      "дили": 4556,
      "у?\n": 4557,
      "▁diction": 4558,
      "▁поги": 4559,
      "▁fast": 4560,
      "нить,": 4561,
      "▁Но": 4562,
      "▁стара": 4563,
      "▁Ре": 4564,
      "▁поехал": 4565,
      "▁помощь": 4566,
      "эро": 4567,
      "▁coup": 4568,
      "▁pick": 4569,
      "▁заст": 4570,
      "▁хочется": 4571,
      "▁sol": 4572,
      "▁думаешь,": 4573,
      "льзу": 4574,
      "▁Бостон?\n": 4575,
      "▁front": 4576,
      "▁разоча": 4577,
      "ина": 4578,
      "▁tree.\n": 4579,
      "▁сра": 4580,
      "▁запис": 4581,
      "ерт": 4582,
      "▁боится": 4583,
      "▁сказала": 4584,
      "▁работа.\n": 4585,
      "▁взгля": 4586,
      "▁позволи": 4587,
      "▁раньше.\n": 4588,
      "▁родители": 4589,
      "▁neighbor": 4590,
      "▁certain": 4591,
      "▁esc": 4592,
      "рого": 4593,
      "▁заб": 4594,
      "▁safe": 4595,
      "▁гу": 4596,
      "▁собствен": 4597,
      "▁трина": 4598,
      "▁между": 4599,
      "▁letter.\n": 4600,
      "▁over.\n": 4601,
      "▁strange": 4602,
      "▁Try": 4603,
      "▁нево": 4604,
      "стя": 4605,
      "▁уг": 4606,
      "▁ходит": 4607,
      "▁ходить": 4608,
      "▁known": 4609,
      "▁sub": 4610,
      "душ": 4611,
      "нулся.\n": 4612,
      "▁успе": 4613,
      "▁meeting.\n": 4614,
      "▁first.\n": 4615,
      "▁чаш": 4616,
      "▁будешь": 4617,
      "▁dro": 4618,
      "▁fas": 4619,
      "ense": 4620,
      "▁ти": 4621,
      "ath.\n": 4622,
      "ными.\n": 4623,
      "icked": 4624,
      "▁succ": 4625,
      "▁раза": 4626,
      "ешься": 4627,
      "▁thank": 4628,
      "▁машина": 4629,
      "нёс": 4630,
      "▁третьего.\n": 4631,
      "af": 4632,
      "▁ice": 4633,
      "▁tre": 4634,
      "▁cour": 4635,
      "▁зап": 4636,
      "▁прийти.\n": 4637,
      "▁знают,": 4638,
      "▁Некоторые": 4639,
      "▁worried": 4640,
      "▁разб": 4641,
      "▁аэро": 4642,
      "▁здесь?\n": 4643,
      "arely": 4644,
      "чи.\n": 4645,
      "▁пти": 4646,
      "▁уд": 4647,
      "лись": 4648,
      "▁вина.\n": 4649,
      "вали.\n": 4650,
      "▁office": 4651,
      "▁пиани": 4652,
      "ared.\n": 4653,
      "▁impress": 4654,
      "▁apart": 4655,
      "▁touch": 4656,
      "▁вовремя.\n": 4657,
      "▁аресто": 4658,
      "fort": 4659,
      "рв": 4660,
      "▁craz": 4661,
      "▁anim": 4662,
      "▁провёл": 4663,
      "▁руч": 4664,
      "▁комнату.\n": 4665,
      "▁бут": 4666,
      "ings": 4667,
      "▁зем": 4668,
      "▁наконец": 4669,
      "ль.\n": 4670,
      "▁обви": 4671,
      "▁помога": 4672,
      "▁chance.\n": 4673,
      "▁died.\n": 4674,
      "▁произой": 4675,
      "▁Кажет": 4676,
      "▁Жаль,": 4677,
      "▁actually": 4678,
      "ном.\n": 4679,
      "▁ог": 4680,
      "▁что,": 4681,
      "▁продолж": 4682,
      "▁хорош": 4683,
      "▁child.\n": 4684,
      "▁interesting": 4685,
      "▁concer": 4686,
      "i.\n": 4687,
      "ма.\n": 4688,
      "ить,": 4689,
      "кие": 4690,
      "ейс": 4691,
      "ции.\n": 4692,
      "луш": 4693,
      "▁скоре": 4694,
      "▁посмотрел": 4695,
      "▁показал": 4696,
      "▁lunch.\n": 4697,
      "▁поэтому": 4698,
      "▁transl": 4699,
      "ери": 4700,
      "red.\n": 4701,
      "▁realiz": 4702,
      "▁Чего": 4703,
      "▁vac": 4704,
      "▁делает.\n": 4705,
      "▁слышал": 4706,
      "▁bird": 4707,
      "▁slow": 4708,
      "▁подумал,": 4709,
      "▁свобод": 4710,
      "▁Кажется,": 4711,
      "тов.\n": 4712,
      "▁све": 4713,
      "▁даль": 4714,
      "▁поступ": 4715,
      "▁resp": 4716,
      "▁least": 4717,
      "▁arm": 4718,
      "▁eng": 4719,
      "▁prep": 4720,
      "▁вечером.\n": 4721,
      "▁minutes": 4722,
      "▁world.\n": 4723,
      "▁танце": 4724,
      "▁успех": 4725,
      "▁escap": 4726,
      "ря.\n": 4727,
      "ite.\n": 4728,
      "▁pur": 4729,
      "ceive": 4730,
      "▁соби": 4731,
      "▁arg": 4732,
      "▁хва": 4733,
      "▁помни": 4734,
      "▁story.\n": 4735,
      "вле": 4736,
      "▁ban": 4737,
      "▁Многие": 4738,
      "▁яв": 4739,
      "▁принял": 4740,
      "▁состоя": 4741,
      "бы.\n": 4742,
      "стара": 4743,
      "рый": 4744,
      "▁shirt": 4745,
      "▁rich": 4746,
      "acks": 4747,
      "▁одну": 4748,
      "баты": 4749,
      "▁неделе.\n": 4750,
      "▁чувствую": 4751,
      "▁отказался": 4752,
      "▁зовут": 4753,
      "того": 4754,
      "▁свет": 4755,
      "▁постав": 4756,
      "▁fact": 4757,
      "▁кре": 4758,
      "▁насто": 4759,
      "▁назы": 4760,
      "▁устав": 4761,
      "▁go?\n": 4762,
      "дой.\n": 4763,
      "ением": 4764,
      "▁нож": 4765,
      "▁Могу": 4766,
      "▁собра": 4767,
      "▁somebody": 4768,
      "▁здесь,": 4769,
      "▁тебе,": 4770,
      "▁sister.\n": 4771,
      "medi": 4772,
      "▁связ": 4773,
      "▁baby": 4774,
      "▁medic": 4775,
      "омнева": 4776,
      "▁ван": 4777,
      "▁Боюсь,": 4778,
      "▁важ": 4779,
      "ился,": 4780,
      "▁immedi": 4781,
      "▁уверены,": 4782,
      "▁phone.\n": 4783,
      "▁yet?\n": 4784,
      "ee": 4785,
      "▁вели": 4786,
      "ены.\n": 4787,
      "теля": 4788,
      "▁fight": 4789,
      "▁уйти": 4790,
      "▁beha": 4791,
      "▁necess": 4792,
      "▁вспом": 4793,
      "▁help?\n": 4794,
      "▁подход": 4795,
      "▁quit": 4796,
      "▁друзей.\n": 4797,
      "▁Australia?\n": 4798,
      "фор": 4799,
      "▁English.\n": 4800,
      "▁bicycle": 4801,
      "▁тюрьм": 4802,
      "ём.\n": 4803,
      "▁лож": 4804,
      "▁зачем": 4805,
      "▁Об": 4806,
      "▁выключ": 4807,
      "▁кол": 4808,
      "▁ra": 4809,
      "▁спря": 4810,
      "▁longer.\n": 4811,
      "▁твои": 4812,
      "▁похож": 4813,
      "▁дождь": 4814,
      "▁laug": 4815,
      "▁woman": 4816,
      "▁шляп": 4817,
      "▁ю": 4818,
      "▁поран": 4819,
      "▁кры": 4820,
      "▁pop": 4821,
      "▁знаете": 4822,
      "▁сказали,": 4823,
      "▁Пой": 4824,
      "ений.\n": 4825,
      "▁хочет.\n": 4826,
      "▁гал": 4827,
      "▁говорил.\n": 4828,
      "▁видеть.\n": 4829,
      "▁class.\n": 4830,
      "▁имя": 4831,
      "▁имел": 4832,
      "▁shoes": 4833,
      "▁phot": 4834,
      "▁кофе": 4835,
      "▁homework.\n": 4836,
      "▁agreed": 4837,
      "ten.\n": 4838,
      "▁вста": 4839,
      "edd": 4840,
      "ed?\n": 4841,
      "▁заказ": 4842,
      "▁продол": 4843,
      "▁собой.\n": 4844,
      "дов": 4845,
      "▁обна": 4846,
      "▁rather": 4847,
      "▁prop": 4848,
      "▁вашей": 4849,
      "▁clim": 4850,
      "▁поздно": 4851,
      "глаш": 4852,
      "щее": 4853,
      "▁произ": 4854,
      "▁scared": 4855,
      "▁beautiful.\n": 4856,
      "▁perm": 4857,
      "▁попросить": 4858,
      "варти": 4859,
      "▁Люди": 4860,
      "▁осторож": 4861,
      "cl": 4862,
      "▁сте": 4863,
      "нич": 4864,
      "▁it'll": 4865,
      "▁лы": 4866,
      "▁lock": 4867,
      "▁часа.\n": 4868,
      "ush": 4869,
      "▁evening.\n": 4870,
      "▁умею": 4871,
      "▁дети": 4872,
      "▁fun.\n": 4873,
      "▁положил": 4874,
      "▁иногда": 4875,
      "tim": 4876,
      "жать.\n": 4877,
      "▁bas": 4878,
      "▁pri": 4879,
      "▁приня": 4880,
      "▁You'd": 4881,
      "▁друга": 4882,
      "вым": 4883,
      "▁смотр": 4884,
      "▁сделать,": 4885,
      "▁Никогда": 4886,
      "▁hard.\n": 4887,
      "▁границ": 4888,
      "lept": 4889,
      "▁October": 4890,
      "дум": 4891,
      "▁table": 4892,
      "▁пля": 4893,
      "▁dist": 4894,
      "▁дво": 4895,
      "▁fast.\n": 4896,
      "▁быстре": 4897,
      "▁забудь": 4898,
      "ны?\n": 4899,
      "▁it,": 4900,
      "▁solve": 4901,
      "▁обеща": 4902,
      "▁wife.\n": 4903,
      "▁глупо": 4904,
      "▁town.\n": 4905,
      "▁Можешь": 4906,
      "▁park.\n": 4907,
      "▁decision.\n": 4908,
      "▁dollars.\n": 4909,
      "▁possible.\n": 4910,
      "▁необходи": 4911,
      "▁taken": 4912,
      "a?\n": 4913,
      "дят": 4914,
      "▁тем,": 4915,
      "▁Am": 4916,
      "▁Even": 4917,
      "▁одном": 4918,
      "▁научиться": 4919,
      "▁convinced": 4920,
      "ier": 4921,
      "крес": 4922,
      "▁мил": 4923,
      "▁bi": 4924,
      "▁wash": 4925,
      "жете": 4926,
      "▁Sund": 4927,
      "▁worth": 4928,
      "▁авари": 4929,
      "чешь": 4930,
      "▁подоб": 4931,
      "▁hardly": 4932,
      "▁clear": 4933,
      "держи": 4934,
      "▁холодно.\n": 4935,
      "▁брать": 4936,
      "▁bicycle.\n": 4937,
      "▁outside.\n": 4938,
      "▁безопасности.\n": 4939,
      "eep": 4940,
      "▁Томе.\n": 4941,
      "ither.\n": 4942,
      "▁Ста": 4943,
      "▁Де": 4944,
      "▁temp": 4945,
      "▁save": 4946,
      "▁сестра": 4947,
      "▁смотреть": 4948,
      "▁машине.\n": 4949,
      "▁quickly.\n": 4950,
      "▁sing.\n": 4951,
      "▁уехал": 4952,
      "▁зави": 4953,
      "▁ящи": 4954,
      "▁Пре": 4955,
      "▁closed": 4956,
      "▁пойду": 4957,
      "▁trouble": 4958,
      "▁класс": 4959,
      "▁замуж": 4960,
      "▁меньше": 4961,
      "ps": 4962,
      "▁bos": 4963,
      "▁оказ": 4964,
      "ности": 4965,
      "рок": 4966,
      "▁either.\n": 4967,
      "▁At": 4968,
      "лял": 4969,
      "пон": 4970,
      "ного.\n": 4971,
      "жды": 4972,
      "▁car?\n": 4973,
      "▁часов.\n": 4974,
      "▁сделает": 4975,
      "▁читать": 4976,
      "airs.\n": 4977,
      "▁expensive": 4978,
      "▁protect": 4979,
      "кресень": 4980,
      "▁mount": 4981,
      "as.\n": 4982,
      "▁drank": 4983,
      "ation?\n": 4984,
      "▁problems.\n": 4985,
      "▁hour.\n": 4986,
      "▁любимый": 4987,
      "▁elect": 4988,
      "ает": 4989,
      "ление.\n": 4990,
      "▁сти": 4991,
      "▁дать": 4992,
      "▁ce": 4993,
      "▁fut": 4994,
      "▁наши": 4995,
      "▁is?\n": 4996,
      "▁inform": 4997,
      "▁Ну": 4998,
      "▁shot": 4999,
      "▁есть?\n": 5000,
      "▁компа": 5001,
      "▁written": 5002,
      "▁твоей": 5003,
      "▁advised": 5004,
      "рмаль": 5005,
      "▁summer.\n": 5006,
      "▁Спасибо,": 5007,
      "биль": 5008,
      "стве": 5009,
      "ase.\n": 5010,
      "▁hum": 5011,
      "▁hund": 5012,
      "▁теря": 5013,
      "▁работе.\n": 5014,
      "▁prefer": 5015,
      "▁Луч": 5016,
      "▁подарок.\n": 5017,
      "▁воскресень": 5018,
      "▁бросил": 5019,
      "▁собака": 5020,
      "▁Nothing": 5021,
      "▁заслужи": 5022,
      "▁бутыл": 5023,
      "▁неме": 5024,
      "▁murd": 5025,
      "▁пожал": 5026,
      "тер.\n": 5027,
      "ition": 5028,
      "ory.\n": 5029,
      "бота": 5030,
      "▁Этого": 5031,
      "▁ship": 5032,
      "▁allowed": 5033,
      "▁меч": 5034,
      "itted": 5035,
      "▁deserve": 5036,
      "▁съез": 5037,
      "▁кажется": 5038,
      "▁completely": 5039,
      "▁camer": 5040,
      "ин": 5041,
      "кет": 5042,
      "▁ам": 5043,
      "▁ром": 5044,
      "▁tast": 5045,
      "er,": 5046,
      "▁уй": 5047,
      "▁уговори": 5048,
      "ходите": 5049,
      "▁he'll": 5050,
      "▁принима": 5051,
      "▁знать.\n": 5052,
      "▁canc": 5053,
      "aged": 5054,
      "ются.\n": 5055,
      "▁станов": 5056,
      "▁Воз": 5057,
      "▁saying": 5058,
      "▁plans": 5059,
      "▁home?\n": 5060,
      "▁Австралии": 5061,
      "▁guess": 5062,
      "▁лекар": 5063,
      "▁ожид": 5064,
      "▁invited": 5065,
      "▁obvi": 5066,
      "▁drunk.\n": 5067,
      "ured": 5068,
      "сы": 5069,
      "▁bath": 5070,
      "▁gre": 5071,
      "▁прият": 5072,
      "лей.\n": 5073,
      "▁Поз": 5074,
      "стань": 5075,
      "▁большая": 5076,
      "ется,": 5077,
      "▁одной": 5078,
      "▁школе": 5079,
      "▁things.\n": 5080,
      "▁students": 5081,
      "▁следовало": 5082,
      "▁sil": 5083,
      "▁непри": 5084,
      "▁мом": 5085,
      "▁кварти": 5086,
      "нему": 5087,
      "▁stol": 5088,
      "▁смотрел": 5089,
      "▁уверена,": 5090,
      "▁seemed": 5091,
      "▁опоздал": 5092,
      "▁любят": 5093,
      "▁невозможно": 5094,
      "еди": 5095,
      "▁then": 5096,
      "▁hon": 5097,
      "ными": 5098,
      "▁seat": 5099,
      "лять": 5100,
      "▁посте": 5101,
      "▁другу": 5102,
      "▁скажу": 5103,
      "▁char": 5104,
      "дцати": 5105,
      "▁tomorrow?\n": 5106,
      "▁hair.\n": 5107,
      "▁другой": 5108,
      "мыс": 5109,
      "зреваю,": 5110,
      "имо": 5111,
      "ода": 5112,
      "▁av": 5113,
      "▁wedd": 5114,
      "▁суд": 5115,
      "rem": 5116,
      "▁slept": 5117,
      "раж": 5118,
      "▁бед": 5119,
      "▁надеюсь,": 5120,
      "▁выше": 5121,
      "adi": 5122,
      "▁Под": 5123,
      "▁говорит.\n": 5124,
      "▁dead.\n": 5125,
      "▁Какие": 5126,
      "▁худ": 5127,
      "▁работаю": 5128,
      "▁позвонил": 5129,
      "▁помочь?\n": 5130,
      "▁foot": 5131,
      "▁surpris": 5132,
      "▁funn": 5133,
      "▁телевизор": 5134,
      "▁фильм": 5135,
      "▁рождения.\n": 5136,
      "▁влюбл": 5137,
      "father": 5138,
      "▁sand": 5139,
      "▁bri": 5140,
      "▁burn": 5141,
      "▁потом": 5142,
      "▁game": 5143,
      "▁знать": 5144,
      "▁кош": 5145,
      "▁nothing.\n": 5146,
      "ались.\n": 5147,
      "ением.\n": 5148,
      "▁руки.\n": 5149,
      "▁вчера.\n": 5150,
      "▁flowers": 5151,
      "▁number": 5152,
      "rit": 5153,
      "еро": 5154,
      "цо": 5155,
      "▁пя": 5156,
      "▁сбе": 5157,
      "ined": 5158,
      "▁дви": 5159,
      "▁пох": 5160,
      "▁gun": 5161,
      "▁nerv": 5162,
      "▁год": 5163,
      "каза": 5164,
      "▁its": 5165,
      "ении": 5166,
      "ляется": 5167,
      "▁шёл": 5168,
      "▁art": 5169,
      "▁пару": 5170,
      "▁ошибку.\n": 5171,
      "▁milk": 5172,
      "▁Canadian": 5173,
      "▁зонти": 5174,
      "▁примерно": 5175,
      "ile": 5176,
      "вал,": 5177,
      "▁ow": 5178,
      "▁пят": 5179,
      "▁утра": 5180,
      "ile.\n": 5181,
      "ты?\n": 5182,
      "▁интересу": 5183,
      "ail.\n": 5184,
      "▁никаких": 5185,
      "▁дня.\n": 5186,
      "▁daughter": 5187,
      "▁birthday": 5188,
      "▁sometimes": 5189,
      "▁ребёнок.\n": 5190,
      "а?\n": 5191,
      "ден": 5192,
      "да,": 5193,
      "▁забо": 5194,
      "▁once.\n": 5195,
      "▁значит": 5196,
      "▁делал": 5197,
      "▁её.\n": 5198,
      "▁driver": 5199,
      "▁место.\n": 5200,
      "▁kissed": 5201,
      "▁except": 5202,
      "▁breakfast": 5203,
      "зульта": 5204,
      "▁хвата": 5205,
      "▁необходимо": 5206,
      "ление": 5207,
      "ёте": 5208,
      "▁повто": 5209,
      "et?\n": 5210,
      "▁сожал": 5211,
      "та?\n": 5212,
      "▁кур": 5213,
      "▁результа": 5214,
      "▁доме": 5215,
      "зови": 5216,
      "▁проблемы.\n": 5217,
      "▁interesting.\n": 5218,
      "▁Какое": 5219,
      "▁понедельни": 5220,
      "▁близ": 5221,
      "▁галсту": 5222,
      "йно": 5223,
      "нно": 5224,
      "▁мать": 5225,
      "▁поп": 5226,
      "▁fool": 5227,
      "ark.\n": 5228,
      "▁вещи": 5229,
      "▁вами.\n": 5230,
      "▁нам,": 5231,
      "цию.\n": 5232,
      "мите": 5233,
      "▁стан": 5234,
      "▁die.\n": 5235,
      "▁вопросов.\n": 5236,
      "▁Хоро": 5237,
      "▁young.\n": 5238,
      "▁детя": 5239,
      "▁present": 5240,
      "▁теннис.\n": 5241,
      "▁restaurant": 5242,
      "▁Something": 5243,
      "▁animal": 5244,
      "▁hundred": 5245,
      "ead": 5246,
      "ious": 5247,
      "щит": 5248,
      "▁мас": 5249,
      "▁breat": 5250,
      "▁поко": 5251,
      "ен,": 5252,
      "▁уни": 5253,
      "▁уезжа": 5254,
      "ions": 5255,
      "ляет": 5256,
      "▁гря": 5257,
      "ular": 5258,
      "▁спать": 5259,
      "▁чемода": 5260,
      "▁этих": 5261,
      "▁Австралии?\n": 5262,
      "читы": 5263,
      "▁окно.\n": 5264,
      "▁первый": 5265,
      "▁kids": 5266,
      "▁матери": 5267,
      "▁noticed": 5268,
      "▁couple": 5269,
      "омневаюсь,": 5270,
      "not": 5271,
      "шком.\n": 5272,
      "ые": 5273,
      "я,": 5274,
      "▁выяс": 5275,
      "▁разве": 5276,
      "▁вопросы.\n": 5277,
      "▁contin": 5278,
      "▁груст": 5279,
      "▁Посмотри": 5280,
      "▁следующем": 5281,
      "▁родился": 5282,
      "▁accident": 5283,
      "▁movie.\n": 5284,
      "▁зарабаты": 5285,
      "▁color": 5286,
      "ber": 5287,
      "ым": 5288,
      "▁z": 5289,
      "▁treat": 5290,
      "▁сил": 5291,
      "▁неболь": 5292,
      "▁очере": 5293,
      "вый.\n": 5294,
      "▁asking": 5295,
      "▁друзей": 5296,
      "▁говорил,": 5297,
      "▁предложение.\n": 5298,
      "▁людей.\n": 5299,
      "▁borrow": 5300,
      "ишь": 5301,
      "▁ал": 5302,
      "oned": 5303,
      "▁четы": 5304,
      "▁бейс": 5305,
      "▁уйти.\n": 5306,
      "▁hold": 5307,
      "▁doing.\n": 5308,
      "▁сделала": 5309,
      "езд": 5310,
      "▁машины.\n": 5311,
      "▁словар": 5312,
      "▁white": 5313,
      "▁город": 5314,
      "▁карма": 5315,
      "▁возможно,": 5316,
      "▁chur": 5317,
      "▁адрес": 5318,
      "▁number.\n": 5319,
      "▁себе.\n": 5320,
      "▁постро": 5321,
      "роб": 5322,
      "▁кам": 5323,
      "▁кру": 5324,
      "сят": 5325,
      "▁heav": 5326,
      "ative": 5327,
      "▁Al": 5328,
      "▁belong": 5329,
      "▁fair": 5330,
      "▁impossi": 5331,
      "▁дорого": 5332,
      "▁country.\n": 5333,
      "▁stole": 5334,
      "▁summer": 5335,
      "▁шесть": 5336,
      "▁breakfast.\n": 5337,
      "▁Keep": 5338,
      "▁украл": 5339,
      "▁upset.\n": 5340,
      "▁удалось": 5341,
      "▁ir": 5342,
      "▁won": 5343,
      "▁send": 5344,
      "▁son.\n": 5345,
      "роп": 5346,
      "▁отпус": 5347,
      "▁ждал": 5348,
      "▁жела": 5349,
      "▁Ne": 5350,
      "▁месте": 5351,
      "▁хлеб": 5352,
      "▁drink.\n": 5353,
      "▁eyes.\n": 5354,
      "▁story": 5355,
      "▁едва": 5356,
      "▁порань": 5357,
      "вё": 5358,
      "▁dark": 5359,
      "▁неза": 5360,
      "▁млад": 5361,
      "▁постоя": 5362,
      "▁чест": 5363,
      "▁запер": 5364,
      "▁store": 5365,
      "▁office.\n": 5366,
      "▁пиш": 5367,
      "▁\"W": 5368,
      "▁рассказать": 5369,
      "держ": 5370,
      "▁кого-нибудь": 5371,
      "▁тебе.\n": 5372,
      "▁половине": 5373,
      "▁lawyer.\n": 5374,
      "ball.\n": 5375,
      "▁ситуа": 5376,
      "▁дя": 5377,
      "▁бел": 5378,
      "ider": 5379,
      "▁пришла": 5380,
      "лег": 5381,
      "мати": 5382,
      "▁deal": 5383,
      "▁Ex": 5384,
      "▁часов": 5385,
      "ations": 5386,
      "▁книги.\n": 5387,
      "▁dinner": 5388,
      "▁Japanese": 5389,
      "▁guitar": 5390,
      "bit": 5391,
      "pl": 5392,
      "ract": 5393,
      "жил": 5394,
      "ив": 5395,
      "▁takes": 5396,
      "▁сход": 5397,
      "▁вто": 5398,
      "ret.\n": 5399,
      "▁bother": 5400,
      "вой.\n": 5401,
      "▁ходил": 5402,
      "жек": 5403,
      "▁тор": 5404,
      "ня.\n": 5405,
      "▁какая": 5406,
      "ётся": 5407,
      "вых": 5408,
      "▁hoping": 5409,
      "ён,": 5410,
      "spap": 5411,
      "▁открыть": 5412,
      "▁ехать.\n": 5413,
      "▁Родите": 5414,
      "▁yesterday?\n": 5415,
      "▁здоров": 5416,
      "man.\n": 5417,
      "▁typ": 5418,
      "▁оно": 5419,
      "над": 5420,
      "ружи": 5421,
      "▁So": 5422,
      "вес": 5423,
      "▁оби": 5424,
      "▁radi": 5425,
      "▁deep": 5426,
      "▁enem": 5427,
      "▁given": 5428,
      "▁своими": 5429,
      "▁говорят": 5430,
      "▁по-французски?\n": 5431,
      "▁writing": 5432,
      "▁единственный,": 5433,
      "▁mistakes.\n": 5434,
      "ious.\n": 5435,
      "ring": 5436,
      "ой.\n": 5437,
      "ппа": 5438,
      "▁своём": 5439,
      "▁часть": 5440,
      "ap.\n": 5441,
      "▁draw": 5442,
      "▁point": 5443,
      "▁играл": 5444,
      "▁карти": 5445,
      "▁учитель": 5446,
      "▁обсуд": 5447,
      "▁Лучше": 5448,
      "ака": 5449,
      "▁gen": 5450,
      "▁station.\n": 5451,
      "▁receive": 5452,
      "ки,": 5453,
      "▁пешком.\n": 5454,
      "▁смеш": 5455,
      "▁country": 5456,
      "▁stupid.\n": 5457,
      "▁expensive.\n": 5458,
      "той": 5459,
      "▁fig": 5460,
      "▁наз": 5461,
      "▁нашли": 5462,
      "▁lie": 5463,
      "▁rich.\n": 5464,
      "ilt": 5465,
      "▁стоило": 5466,
      "▁ваше": 5467,
      "▁passed": 5468,
      "▁town": 5469,
      "hone": 5470,
      "ющи": 5471,
      "▁сва": 5472,
      "▁вряд": 5473,
      "ldom": 5474,
      "▁seldom": 5475,
      "▁alive.\n": 5476,
      "uring": 5477,
      "вство": 5478,
      "▁думала,": 5479,
      "▁newspap": 5480,
      "▁удивл": 5481,
      "▁улице": 5482,
      "▁себя.\n": 5483,
      "by": 5484,
      "вь": 5485,
      "кал": 5486,
      "чу.\n": 5487,
      "▁four": 5488,
      "стран": 5489,
      "вого": 5490,
      "▁stay.\n": 5491,
      "▁принад": 5492,
      "поко": 5493,
      "▁shut": 5494,
      "▁пиро": 5495,
      "izz": 5496,
      "▁Хочешь": 5497,
      "▁самое": 5498,
      "▁ужин.\n": 5499,
      "▁пытаюсь": 5500,
      "▁покупа": 5501,
      "▁рис": 5502,
      "▁глаза.\n": 5503,
      "▁health": 5504,
      "▁принадле": 5505,
      "▁be.\n": 5506,
      "▁abro": 5507,
      "▁suitc": 5508,
      "▁rain.\n": 5509,
      "▁правда.\n": 5510,
      "▁Jacks": 5511,
      "▁Ничего": 5512,
      "▁сердц": 5513,
      "▁попробу": 5514,
      "▁говорили,": 5515,
      "▁October.\n": 5516,
      "▁шах": 5517,
      "▁понял,": 5518,
      "selves.\n": 5519,
      "oid": 5520,
      "ward": 5521,
      "▁dark.\n": 5522,
      "▁нерв": 5523,
      "рая": 5524,
      "на,": 5525,
      "es,": 5526,
      "▁beer.\n": 5527,
      "ерен": 5528,
      "▁have?\n": 5529,
      "enty": 5530,
      "▁jump": 5531,
      "▁about?\n": 5532,
      "▁ru": 5533,
      "англий": 5534,
      "▁нет?\n": 5535,
      "▁руку.\n": 5536,
      "▁заняти": 5537,
      "▁пыт": 5538,
      "▁денег,": 5539,
      "▁встретил": 5540,
      "▁crying.\n": 5541,
      "▁Should": 5542,
      "▁sweat": 5543,
      "▁каждое": 5544,
      "▁respon": 5545,
      "▁tree": 5546,
      "▁wake": 5547,
      "▁вне": 5548,
      "▁sy": 5549,
      "▁покрас": 5550,
      "▁молод": 5551,
      "▁дост": 5552,
      "▁вот": 5553,
      "▁восем": 5554,
      "▁telep": 5555,
      "el.\n": 5556,
      "ции": 5557,
      "▁деть": 5558,
      "▁делаю": 5559,
      "▁цер": 5560,
      "▁blue": 5561,
      "▁fault.\n": 5562,
      "▁чего-нибудь": 5563,
      "ялся,": 5564,
      "bo": 5565,
      "col": 5566,
      "lic": 5567,
      "uct": 5568,
      "ugg": 5569,
      "ской": 5570,
      "▁die": 5571,
      "ене": 5572,
      "стри": 5573,
      "ately.\n": 5574,
      "▁Отец": 5575,
      "▁Нет": 5576,
      "▁cannot": 5577,
      "▁Af": 5578,
      "▁Джек": 5579,
      "▁кататься": 5580,
      "стве.\n": 5581,
      "▁хра": 5582,
      "▁which": 5583,
      "▁детей": 5584,
      "▁бабу": 5585,
      "▁result": 5586,
      "▁husband": 5587,
      "▁убий": 5588,
      "▁Джексо": 5589,
      "кти": 5590,
      "нечно": 5591,
      "▁inj": 5592,
      "▁ран": 5593,
      "▁яй": 5594,
      "лей": 5595,
      "▁Им": 5596,
      "▁there's": 5597,
      "▁right?\n": 5598,
      "▁имя.\n": 5599,
      "▁change.\n": 5600,
      "▁woman.\n": 5601,
      "▁изучать": 5602,
      "▁OK.\n": 5603,
      "ie.\n": 5604,
      "pe": 5605,
      "ures": 5606,
      "чет.\n": 5607,
      "▁ел": 5608,
      "▁снял": 5609,
      "▁включ": 5610,
      "▁mid": 5611,
      "▁остро": 5612,
      "▁иду": 5613,
      "▁heart": 5614,
      "▁япон": 5615,
      "руч": 5616,
      "▁той": 5617,
      "▁обма": 5618,
      "ight?\n": 5619,
      "▁nobody": 5620,
      "▁death.\n": 5621,
      "часть": 5622,
      "▁осталось": 5623,
      "▁страш": 5624,
      "▁далеко": 5625,
      "нюю": 5626,
      "▁вечеринку.\n": 5627,
      "▁отсюда": 5628,
      "▁рождения": 5629,
      "▁prison": 5630,
      "cil": 5631,
      "нил.\n": 5632,
      "шли.\n": 5633,
      "▁сла": 5634,
      "▁cross": 5635,
      "▁lend": 5636,
      "▁мол": 5637,
      "▁лёг": 5638,
      "▁кост": 5639,
      "▁cand": 5640,
      "▁ботин": 5641,
      "▁вез": 5642,
      "▁allow": 5643,
      "▁affor": 5644,
      "▁работал": 5645,
      "▁divor": 5646,
      "▁earli": 5647,
      "▁hat.\n": 5648,
      "▁bad.\n": 5649,
      "▁спокой": 5650,
      "▁последнее": 5651,
      "▁kids.\n": 5652,
      "▁Сол": 5653,
      "▁велосипед.\n": 5654,
      "▁clothes.\n": 5655,
      "▁afternoon.\n": 5656,
      "▁aut": 5657,
      "▁Tod": 5658,
      "ishing": 5659,
      "▁осо": 5660,
      "▁надел": 5661,
      "▁наша": 5662,
      "▁pizz": 5663,
      "▁вы.\n": 5664,
      "▁принять": 5665,
      "▁тому": 5666,
      "▁coming.\n": 5667,
      "ских": 5668,
      "▁Даже": 5669,
      "cial": 5670,
      "▁apologize": 5671,
      "▁floor.\n": 5672,
      "▁вернётся.\n": 5673,
      "▁займ": 5674,
      "▁Today": 5675,
      "'cl": 5676,
      "ф.\n": 5677,
      "ished.\n": 5678,
      "▁mag": 5679,
      "▁cur": 5680,
      "нос": 5681,
      "ровать.\n": 5682,
      "▁o'cl": 5683,
      "▁отца.\n": 5684,
      "irt.\n": 5685,
      "hose": 5686,
      "▁tea.\n": 5687,
      "▁ride": 5688,
      "мери": 5689,
      "▁news.\n": 5690,
      "▁smar": 5691,
      "петь": 5692,
      "ствовать": 5693,
      "▁blame": 5694,
      "▁заняты.\n": 5695,
      "▁hands.\n": 5696,
      "▁осталь": 5697,
      "▁carefull": 5698,
      "▁party": 5699,
      "▁shoes.\n": 5700,
      "▁посмотреть": 5701,
      "▁secret.\n": 5702,
      "▁Фома": 5703,
      "▁попытался": 5704,
      "▁немедлен": 5705,
      "less": 5706,
      "▁to?\n": 5707,
      "▁особ": 5708,
      "хожу": 5709,
      "ваю.\n": 5710,
      "▁sug": 5711,
      "▁dead": 5712,
      "▁когда-то": 5713,
      "▁river.\n": 5714,
      "▁решили": 5715,
      "▁другом.\n": 5716,
      "▁marry": 5717,
      "▁hates": 5718,
      "▁like.\n": 5719,
      "▁тай": 5720,
      "▁Больше": 5721,
      "▁grandfather": 5722,
      "▁languag": 5723,
      "▁drunk": 5724,
      "▁Here's": 5725,
      "▁ign": 5726,
      "omm": 5727,
      "▁двери": 5728,
      "▁Мальчи": 5729,
      "▁знач": 5730,
      "ustom": 5731,
      "▁хорошее": 5732,
      "▁автобус.\n": 5733,
      "▁convince": 5734,
      "▁живут": 5735,
      "льзоваться": 5736,
      "▁Позволь": 5737,
      "ёте.\n": 5738,
      "ored": 5739,
      "▁сказал?\n": 5740,
      "ально": 5741,
      "▁твоё": 5742,
      "▁конце": 5743,
      "▁poin": 5744,
      "▁pock": 5745,
      "▁ночью": 5746,
      "▁hospital": 5747,
      "▁ушёл.\n": 5748,
      "▁clothes": 5749,
      "▁Подозреваю,": 5750,
      "▁girlfriend.\n": 5751,
      "▁напуга": 5752,
      "ев": 5753,
      "лый": 5754,
      "цы.\n": 5755,
      "▁30": 5756,
      "▁вла": 5757,
      "isf": 5758,
      "▁yell": 5759,
      "▁повер": 5760,
      "itic": 5761,
      "▁respect": 5762,
      "▁Па": 5763,
      "▁принёс": 5764,
      "▁ответ.\n": 5765,
      "▁винова": 5766,
      "▁видеть": 5767,
      "▁план.\n": 5768,
      "▁experi": 5769,
      "▁по-англий": 5770,
      "▁нравится,": 5771,
      "▁хотите,": 5772,
      "▁оставить": 5773,
      "▁begin": 5774,
      "▁crow": 5775,
      "▁crim": 5776,
      "▁подождать": 5777,
      "▁утром.\n": 5778,
      "▁курить.\n": 5779,
      "лагаю,": 5780,
      "▁garden.\n": 5781,
      "шинство": 5782,
      "▁veget": 5783,
      "▁гряз": 5784,
      "▁afford": 5785,
      "man": 5786,
      "uri": 5787,
      "жли": 5788,
      "нём": 5789,
      "▁пошли": 5790,
      "▁пожен": 5791,
      "▁fill": 5792,
      "▁ключи": 5793,
      "▁бы,": 5794,
      "▁прогу": 5795,
      "▁горя": 5796,
      "▁notice": 5797,
      "▁ждёт": 5798,
      "ache": 5799,
      "▁Наш": 5800,
      "▁work?\n": 5801,
      "▁почу": 5802,
      "▁careful": 5803,
      "▁сын": 5804,
      "▁победит.\n": 5805,
      "▁beginn": 5806,
      "▁listening": 5807,
      "▁убедить": 5808,
      "▁инфор": 5809,
      "▁street.\n": 5810,
      "▁Родители": 5811,
      "rap": 5812,
      "кс": 5813,
      "твер": 5814,
      "▁ем": 5815,
      "▁Там": 5816,
      "▁top": 5817,
      "▁bill": 5818,
      "▁ды": 5819,
      "▁face.\n": 5820,
      "erg": 5821,
      "ем?\n": 5822,
      "▁often.\n": 5823,
      "▁пришли": 5824,
      "▁seven": 5825,
      "шь,": 5826,
      "▁га": 5827,
      "▁does.\n": 5828,
      "▁каран": 5829,
      "▁знала,": 5830,
      "йте,": 5831,
      "▁Isn't": 5832,
      "▁coat": 5833,
      "▁полно": 5834,
      "▁stop.\n": 5835,
      "пыт": 5836,
      "▁second": 5837,
      "▁готов.\n": 5838,
      "▁homework": 5839,
      "▁разочарова": 5840,
      "пит": 5841,
      "▁squ": 5842,
      "▁bar": 5843,
      "▁cream": 5844,
      "не?\n": 5845,
      "ator": 5846,
      "умен": 5847,
      "▁with.\n": 5848,
      "▁teet": 5849,
      "▁plays": 5850,
      "▁time?\n": 5851,
      "▁неделю": 5852,
      "▁earth": 5853,
      "▁ответить": 5854,
      "▁времени,": 5855,
      "пустил": 5856,
      "▁milk.\n": 5857,
      "▁друзьями.\n": 5858,
      "▁foreign": 5859,
      "▁building": 5860,
      "▁pencil": 5861,
      "▁посоветовал": 5862,
      "▁погиб": 5863,
      "▁смыс": 5864,
      "ident": 5865,
      "lev": 5866,
      "▁stra": 5867,
      "▁прибы": 5868,
      "▁age.\n": 5869,
      "▁нужно,": 5870,
      "грам": 5871,
      "▁край": 5872,
      "▁началь": 5873,
      "▁apple": 5874,
      "полн": 5875,
      "▁отлич": 5876,
      "▁umbrella": 5877,
      "▁понадобится": 5878,
      "▁Собака": 5879,
      "▁Those": 5880,
      "▁дам": 5881,
      "▁пов": 5882,
      "▁чер": 5883,
      "▁fire.\n": 5884,
      "▁увол": 5885,
      "▁ind": 5886,
      "▁забуд": 5887,
      "▁выйти": 5888,
      "▁приглаш": 5889,
      "▁жу": 5890,
      "▁вошёл": 5891,
      "▁хочу.\n": 5892,
      "ion?\n": 5893,
      "кий.\n": 5894,
      "▁каз": 5895,
      "жите": 5896,
      "▁everyone.\n": 5897,
      "▁los": 5898,
      "▁мест": 5899,
      "▁working.\n": 5900,
      "▁brid": 5901,
      "▁же,": 5902,
      "▁обеда": 5903,
      "щая": 5904,
      "▁careful.\n": 5905,
      "▁weekend.\n": 5906,
      "▁ночью.\n": 5907,
      "▁заплат": 5908,
      "▁Ask": 5909,
      "▁билет": 5910,
      "▁настолько": 5911,
      "д?\n": 5912,
      "нал": 5913,
      "чку.\n": 5914,
      "▁then.\n": 5915,
      "▁list.\n": 5916,
      "стрел": 5917,
      "ense.\n": 5918,
      "▁pull": 5919,
      "ных.\n": 5920,
      "дитель": 5921,
      "▁anybody.\n": 5922,
      "▁нормаль": 5923,
      "▁up?\n": 5924,
      "▁спит.\n": 5925,
      "▁Ей": 5926,
      "▁правы.\n": 5927,
      "▁купила": 5928,
      "▁Ино": 5929,
      "▁пиц": 5930,
      "▁девоч": 5931,
      "▁orang": 5932,
      "ало.\n": 5933,
      "▁взрос": 5934,
      "▁guil": 5935,
      "нее,": 5936,
      "▁язык.\n": 5937,
      "▁ski": 5938,
      "ельси": 5939,
      "▁французском": 5940,
      "▁Изви": 5941,
      "▁birthday.\n": 5942,
      "▁lying": 5943,
      "▁обнаруж": 5944,
      "зя": 5945,
      "у,": 5946,
      "▁city.\n": 5947,
      "▁ува": 5948,
      "▁зад": 5949,
      "▁насчёт": 5950,
      "▁купили": 5951,
      "▁eats": 5952,
      "▁рассчиты": 5953,
      "▁studied": 5954,
      "ument": 5955,
      "▁scared.\n": 5956,
      "преж": 5957,
      "▁умер.\n": 5958,
      "телем.\n": 5959,
      "▁отец.\n": 5960,
      "▁dangerous": 5961,
      "▁газет": 5962,
      "▁замеча": 5963,
      "▁Тако": 5964,
      "▁появ": 5965,
      "▁opp": 5966,
      "▁выуч": 5967,
      "▁явно": 5968,
      "▁призн": 5969,
      "ushed": 5970,
      "▁по-преж": 5971,
      "▁помогать": 5972,
      "▁police.\n": 5973,
      "▁месяце": 5974,
      "▁laughed": 5975,
      "▁каранда": 5976,
      "ket": 5977,
      "▁talk.\n": 5978,
      "▁пить": 5979,
      "▁пить.\n": 5980,
      "рать": 5981,
      "▁Most": 5982,
      "▁Кому": 5983,
      "лед": 5984,
      "▁plant": 5985,
      "▁novel": 5986,
      "▁медлен": 5987,
      "▁одна.\n": 5988,
      "▁watched": 5989,
      "▁понравится.\n": 5990,
      "енави": 5991,
      "▁visited": 5992,
      "▁paint": 5993,
      "▁drive.\n": 5994,
      "▁important.\n": 5995,
      "▁rules.\n": 5996,
      "less.\n": 5997,
      "яла": 5998,
      "▁walk.\n": 5999,
      "▁повез": 6000,
      "▁ca": 6001,
      "кая.\n": 6002,
      "▁защит": 6003,
      "шед": 6004,
      "▁yours.\n": 6005,
      "amp": 6006,
      "▁дело": 6007,
      "▁спа": 6008,
      "olut": 6009,
      "▁spee": 6010,
      "▁проиг": 6011,
      "▁поехать.\n": 6012,
      "▁expecting": 6013,
      "предел": 6014,
      "▁права.\n": 6015,
      "▁лоша": 6016,
      "▁недостаточно": 6017,
      "▁Насколько": 6018,
      "▁trouble.\n": 6019,
      "▁broken": 6020,
      "▁disappoint": 6021,
      "▁гостиниц": 6022,
      "▁obvious": 6023,
      "▁по-прежнему": 6024,
      "ient": 6025,
      "ская": 6026,
      "▁fing": 6027,
      "▁fly": 6028,
      "▁grew": 6029,
      "▁Вра": 6030,
      "▁ann": 6031,
      "▁вышла": 6032,
      "▁водить": 6033,
      "▁гром": 6034,
      "▁могла": 6035,
      "▁большую": 6036,
      "▁helping": 6037,
      "▁стро": 6038,
      "▁часы.\n": 6039,
      "▁butt": 6040,
      "луша": 6041,
      "ool.\n": 6042,
      "▁возь": 6043,
      "▁оставаться": 6044,
      "▁остался": 6045,
      "ялся": 6046,
      "▁холодиль": 6047,
      "▁заниматься": 6048,
      "▁весело.\n": 6049,
      "▁piano": 6050,
      "▁swimming": 6051,
      "▁поблагода": 6052,
      "▁позволить": 6053,
      "▁информа": 6054,
      "щен": 6055,
      "▁dir": 6056,
      "▁неве": 6057,
      "▁оз": 6058,
      "▁cow": 6059,
      "▁city": 6060,
      "рожен": 6061,
      "ory": 6062,
      "enc": 6063,
      "ели.\n": 6064,
      "воря": 6065,
      "▁закон": 6066,
      "▁need.\n": 6067,
      "▁sudd": 6068,
      "▁ночь.\n": 6069,
      "жду.\n": 6070,
      "▁прежде": 6071,
      "▁стол.\n": 6072,
      "▁расска": 6073,
      "▁wine": 6074,
      "▁anything?\n": 6075,
      "▁ошибо": 6076,
      "едли": 6077,
      "▁разговаривать.\n": 6078,
      "▁Ваша": 6079,
      "▁ездил": 6080,
      "помина": 6081,
      "▁снег.\n": 6082,
      "▁smoking.\n": 6083,
      "▁октября.\n": 6084,
      "▁Обеща": 6085,
      "▁mountain": 6086,
      "▁свадь": 6087,
      "▁почувство": 6088,
      "cce": 6089,
      "ски.\n": 6090,
      "шего": 6091,
      "ом?\n": 6092,
      "▁during": 6093,
      "▁mis": 6094,
      "▁благода": 6095,
      "ower": 6096,
      "ники.\n": 6097,
      "ates": 6098,
      "▁задать": 6099,
      "вая.\n": 6100,
      "▁отмен": 6101,
      "▁succe": 6102,
      "▁новая": 6103,
      "▁поможет.\n": 6104,
      "▁преступ": 6105,
      "▁grad": 6106,
      "▁где-то": 6107,
      "▁петь.\n": 6108,
      "▁girl.\n": 6109,
      "▁поезд.\n": 6110,
      "▁собаку.\n": 6111,
      "▁закрыл": 6112,
      "▁сосед": 6113,
      "▁ресторан": 6114,
      "▁recognize": 6115,
      "▁пои": 6116,
      "емся.\n": 6117,
      "▁хожу": 6118,
      "ама": 6119,
      "ally.\n": 6120,
      "rol": 6121,
      "▁jeal": 6122,
      "▁gotten": 6123,
      "▁столе": 6124,
      "▁понимаю": 6125,
      "oken": 6126,
      "▁полицей": 6127,
      "▁глаза": 6128,
      "▁предложил": 6129,
      "▁улице.\n": 6130,
      "▁выпил": 6131,
      "▁order": 6132,
      "▁box.\n": 6133,
      "▁girlfriend": 6134,
      "начала": 6135,
      "▁Расскажите": 6136,
      "▁surprised.\n": 6137,
      "▁шахма": 6138,
      "▁sudden": 6139,
      "ness.\n": 6140,
      "аю": 6141,
      "ика": 6142,
      "рал.\n": 6143,
      "▁5": 6144,
      "але": 6145,
      "▁bank": 6146,
      "▁бывает": 6147,
      "▁Пу": 6148,
      "▁Fr": 6149,
      "▁лучший": 6150,
      "▁drinking": 6151,
      "▁говор": 6152,
      "▁победить.\n": 6153,
      "▁быстро.\n": 6154,
      "▁душ": 6155,
      "▁дура": 6156,
      "ock.\n": 6157,
      "▁концер": 6158,
      "▁across": 6159,
      "▁рыбал": 6160,
      "▁mot": 6161,
      "хот": 6162,
      "▁тобой.\n": 6163,
      "▁Ско": 6164,
      "▁фак": 6165,
      "▁посуд": 6166,
      "▁когда-либо": 6167,
      "▁remain": 6168,
      "дёте": 6169,
      "▁делать,": 6170,
      "▁иметь": 6171,
      "▁name?\n": 6172,
      "▁report": 6173,
      "▁Только": 6174,
      "▁chocol": 6175,
      "▁глубо": 6176,
      "дцатого": 6177,
      "▁пытается": 6178,
      "▁обратно": 6179,
      "▁Иногда": 6180,
      "п.\n": 6181,
      "▁неви": 6182,
      "ли?\n": 6183,
      "▁waste": 6184,
      "▁вырос": 6185,
      "▁Помо": 6186,
      "▁Дер": 6187,
      "▁подпис": 6188,
      "▁случится.\n": 6189,
      "▁несчаст": 6190,
      "▁контро": 6191,
      "▁поме": 6192,
      "▁проблемы": 6193,
      "▁questions": 6194,
      "▁единственная": 6195,
      "▁правильно.\n": 6196,
      "▁Canadian.\n": 6197,
      "▁dangerous.\n": 6198,
      "▁наблю": 6199,
      "▁произойдёт.\n": 6200,
      "▁sandw": 6201,
      "ned": 6202,
      "щаться": 6203,
      "ят.\n": 6204,
      "▁мё": 6205,
      "▁дву": 6206,
      "▁навест": 6207,
      "▁дочь": 6208,
      "▁том": 6209,
      "▁будто": 6210,
      "▁so.\n": 6211,
      "▁виду.\n": 6212,
      "▁Call": 6213,
      "▁машина.\n": 6214,
      "▁сделаю.\n": 6215,
      "▁Прошло": 6216,
      "▁surv": 6217,
      "▁друзья.\n": 6218,
      "▁famous": 6219,
      "▁hurry.\n": 6220,
      "▁красивая": 6221,
      "▁outside": 6222,
      "▁team.\n": 6223,
      "▁самая": 6224,
      "▁волосы.\n": 6225,
      "▁gift": 6226,
      "ning.\n": 6227,
      "оне": 6228,
      "тся.\n": 6229,
      "хват": 6230,
      "щу": 6231,
      "inite": 6232,
      "▁Тут": 6233,
      "нов.\n": 6234,
      "▁fired.\n": 6235,
      "▁pub": 6236,
      "▁элек": 6237,
      "▁threw": 6238,
      "ating.\n": 6239,
      "▁рад": 6240,
      "▁weir": 6241,
      "▁воды": 6242,
      "▁Сдела": 6243,
      "сть?\n": 6244,
      "▁sup": 6245,
      "▁word.\n": 6246,
      "жин": 6247,
      "читал": 6248,
      "▁money?\n": 6249,
      "▁ошиба": 6250,
      "▁выходные": 6251,
      "▁Japan.\n": 6252,
      "▁поверить,": 6253,
      "▁dollars": 6254,
      "▁computer": 6255,
      "▁business": 6256,
      "▁пьёт": 6257,
      "▁situation": 6258,
      "▁дней.\n": 6259,
      "▁piece": 6260,
      "▁den": 6261,
      "▁face": 6262,
      "▁Ненави": 6263,
      "▁ren": 6264,
      "▁никуда": 6265,
      "▁отвез": 6266,
      "ледо": 6267,
      "▁river": 6268,
      "▁позвонить": 6269,
      "▁persu": 6270,
      "▁ответил": 6271,
      "▁дома?\n": 6272,
      "▁разговаривать": 6273,
      "▁счастлив.\n": 6274,
      "▁girls": 6275,
      "▁поесть.\n": 6276,
      "▁отсюда.\n": 6277,
      "ностью": 6278,
      "▁admit": 6279,
      "▁бумаж": 6280,
      "▁business.\n": 6281,
      "▁immediately.\n": 6282,
      "сказ": 6283,
      "щё": 6284,
      "inc": 6285,
      "▁наро": 6286,
      "▁game.\n": 6287,
      "atur": 6288,
      "▁лес": 6289,
      "▁спу": 6290,
      "ант": 6291,
      "▁план": 6292,
      "▁vi": 6293,
      "▁boy.\n": 6294,
      "oky": 6295,
      "▁recent": 6296,
      "▁kid.\n": 6297,
      "▁убежд": 6298,
      "сужд": 6299,
      "▁заставил": 6300,
      "▁никакого": 6301,
      "▁daughter.\n": 6302,
      "▁Джона.\n": 6303,
      "▁bottle": 6304,
      "▁шоко": 6305,
      "▁crazy.\n": 6306,
      "fri": 6307,
      "вуч": 6308,
      "гал": 6309,
      "ок": 6310,
      "▁Toky": 6311,
      "▁dress.\n": 6312,
      "▁danc": 6313,
      "▁полез": 6314,
      "енси": 6315,
      "▁Вы,": 6316,
      "▁Сомневаюсь,": 6317,
      "▁tea": 6318,
      "▁всё.\n": 6319,
      "▁поднял": 6320,
      "▁card": 6321,
      "▁house?\n": 6322,
      "▁голов": 6323,
      "▁while.\n": 6324,
      "димся": 6325,
      "▁invit": 6326,
      "teen": 6327,
      "▁consider": 6328,
      "room.\n": 6329,
      "▁компьютер": 6330,
      "▁поедет": 6331,
      "▁named": 6332,
      "▁2013.\n": 6333,
      "▁extrem": 6334,
      "▁какое-то": 6335,
      "▁лыжа": 6336,
      "▁постоянно": 6337,
      "ром.\n": 6338,
      "▁gar": 6339,
      "▁вид,": 6340,
      "▁посет": 6341,
      "▁переехал": 6342,
      "▁intro": 6343,
      "aus": 6344,
      "▁news": 6345,
      "▁Whose": 6346,
      "▁join": 6347,
      "жаю": 6348,
      "▁решить": 6349,
      "▁которой": 6350,
      "▁imag": 6351,
      "▁играю": 6352,
      "▁appro": 6353,
      "▁книг.\n": 6354,
      "▁согласился": 6355,
      "▁автобусе.\n": 6356,
      "▁теннис": 6357,
      "нце": 6358,
      "▁best.\n": 6359,
      "▁упал": 6360,
      "▁запа": 6361,
      "▁stood": 6362,
      "▁Без": 6363,
      "верь": 6364,
      "▁built": 6365,
      "▁age": 6366,
      "▁intend": 6367,
      "▁руки": 6368,
      "▁котором": 6369,
      "▁they're": 6370,
      "яться.\n": 6371,
      "▁key.\n": 6372,
      "нимать": 6373,
      "▁получить": 6374,
      "▁afraid.\n": 6375,
      "▁Somebody": 6376,
      "▁Жиз": 6377,
      "▁То,": 6378,
      "▁picture.\n": 6379,
      "▁satisf": 6380,
      "▁фильм.\n": 6381,
      "▁телефон.\n": 6382,
      "▁lying.\n": 6383,
      "▁risk": 6384,
      "▁definite": 6385,
      "▁quiet": 6386,
      "нечно,": 6387,
      "▁Ненавижу": 6388,
      "▁Жизнь": 6389,
      "mother": 6390,
      "х?\n": 6391,
      "▁dy": 6392,
      "▁mach": 6393,
      "▁дра": 6394,
      "▁cop": 6395,
      "▁isl": 6396,
      "низ": 6397,
      "▁прод": 6398,
      "▁прочёл": 6399,
      "▁док": 6400,
      "▁сделали?\n": 6401,
      "▁Смотри": 6402,
      "▁safe.\n": 6403,
      "▁избе": 6404,
      "▁разниц": 6405,
      "▁могло": 6406,
      "▁друж": 6407,
      "-то,": 6408,
      "▁купить.\n": 6409,
      "▁просил": 6410,
      "▁понравится": 6411,
      "▁Всё,": 6412,
      "▁fru": 6413,
      "▁concert": 6414,
      "▁song.\n": 6415,
      "▁fish.\n": 6416,
      "▁здоро": 6417,
      "▁важно.\n": 6418,
      "▁предпочита": 6419,
      "хра": 6420,
      "▁side": 6421,
      "▁bod": 6422,
      "▁дв": 6423,
      "▁hang": 6424,
      "▁past": 6425,
      "st.\n": 6426,
      "▁моём": 6427,
      "▁Од": 6428,
      "▁провери": 6429,
      "жешь": 6430,
      "▁Ст": 6431,
      "▁sure.\n": 6432,
      "▁дело.\n": 6433,
      "ife.\n": 6434,
      "▁Things": 6435,
      "▁помощи": 6436,
      "▁ар": 6437,
      "тельный": 6438,
      "▁happen?\n": 6439,
      "▁Амери": 6440,
      "▁слова.\n": 6441,
      "стей.\n": 6442,
      "▁mistake": 6443,
      "▁суще": 6444,
      "▁музыку.\n": 6445,
      "like": 6446,
      "▁uncle": 6447,
      "▁terrible": 6448,
      "▁ball": 6449,
      "▁lif": 6450,
      "▁Mary,": 6451,
      "acked": 6452,
      "▁хорошие": 6453,
      "ань": 6454,
      "▁переех": 6455,
      "▁eat?\n": 6456,
      "▁думал.\n": 6457,
      "▁read.\n": 6458,
      "▁plane": 6459,
      "▁комнату": 6460,
      "▁expected": 6461,
      "▁running": 6462,
      "▁laugh.\n": 6463,
      "▁taller": 6464,
      "▁тысячи": 6465,
      "▁чашку": 6466,
      "▁хватает": 6467,
      "▁Извини": 6468,
      "ke.\n": 6469,
      "sh": 6470,
      "лил": 6471,
      "нет.\n": 6472,
      "са.\n": 6473,
      "чные": 6474,
      "ще.\n": 6475,
      "ым.\n": 6476,
      "▁вел": 6477,
      "▁впер": 6478,
      "▁потре": 6479,
      "▁fishing": 6480,
      "▁inn": 6481,
      "▁морожен": 6482,
      "▁golf": 6483,
      "▁requ": 6484,
      "бор": 6485,
      "▁socc": 6486,
      "▁вид": 6487,
      "▁стрел": 6488,
      "▁here,": 6489,
      "▁feed": 6490,
      "ило.\n": 6491,
      "▁делается.\n": 6492,
      "жай": 6493,
      "▁handed": 6494,
      "▁сказать?\n": 6495,
      "▁wears": 6496,
      "▁всего,": 6497,
      "▁согласен": 6498,
      "статочно.\n": 6499,
      "▁больнице.\n": 6500,
      "▁warm": 6501,
      "▁trip": 6502,
      "▁собирался": 6503,
      "▁persuad": 6504,
      "▁extremely": 6505,
      "ex": 6506,
      "ual": 6507,
      "ual.\n": 6508,
      "ыва": 6509,
      "▁sad.\n": 6510,
      "▁поки": 6511,
      "▁попу": 6512,
      "▁определ": 6513,
      "▁уми": 6514,
      "сь?\n": 6515,
      "▁голь": 6516,
      "ению,": 6517,
      "▁him?\n": 6518,
      "▁стало": 6519,
      "жала": 6520,
      "ция.\n": 6521,
      "ми?\n": 6522,
      "▁appre": 6523,
      "▁умеете": 6524,
      "ние?\n": 6525,
      "▁научил": 6526,
      "▁Токи": 6527,
      "▁sorry,": 6528,
      "▁hiding": 6529,
      "▁мясо": 6530,
      "▁секрет": 6531,
      "▁guys": 6532,
      "▁success": 6533,
      "аппа": 6534,
      "дил.\n": 6535,
      "ления": 6536,
      "▁счасть": 6537,
      "▁непло": 6538,
      "▁мет": 6539,
      "▁дней": 6540,
      "▁cake": 6541,
      "▁направ": 6542,
      "ors": 6543,
      "▁уво": 6544,
      "▁еду": 6545,
      "▁выра": 6546,
      "▁wanted.\n": 6547,
      "▁посп": 6548,
      "▁спал": 6549,
      "▁тридцать.\n": 6550,
      "▁morning": 6551,
      "▁recomm": 6552,
      "▁again?\n": 6553,
      "▁ищу": 6554,
      "▁пальто": 6555,
      "▁months": 6556,
      "▁мама": 6557,
      "▁апельси": 6558,
      "▁неприят": 6559,
      "▁пораньше.\n": 6560,
      "levis": 6561,
      "▁двух": 6562,
      "ле.\n": 6563,
      "рала": 6564,
      "▁wall.\n": 6565,
      "▁побы": 6566,
      "▁постра": 6567,
      "ato": 6568,
      "▁выстрел": 6569,
      "▁weight.\n": 6570,
      "▁Поезд": 6571,
      "ly?\n": 6572,
      "▁anywhere": 6573,
      "▁Le": 6574,
      "▁happening.\n": 6575,
      "▁stuff": 6576,
      "▁understood": 6577,
      "вается.\n": 6578,
      "▁Stay": 6579,
      "▁посмотри": 6580,
      "▁contact": 6581,
      "▁бросить": 6582,
      "▁заметил,": 6583,
      "▁detail": 6584,
      "▁owe": 6585,
      "▁definitely": 6586,
      "в,": 6587,
      "нили": 6588,
      "▁пле": 6589,
      "▁обу": 6590,
      "▁televis": 6591,
      "▁людя": 6592,
      "▁знал.\n": 6593,
      "▁somewhere": 6594,
      "▁Тебя": 6595,
      "▁обещ": 6596,
      "▁остаться.\n": 6597,
      "▁увиде": 6598,
      "▁посмотре": 6599,
      "▁учить": 6600,
      "▁женат.\n": 6601,
      "▁ordered": 6602,
      "▁computer.\n": 6603,
      "▁платье.\n": 6604,
      "▁empty.\n": 6605,
      "▁nervous.\n": 6606,
      "▁innoc": 6607,
      "iv": 6608,
      "ram": 6609,
      "чёт.\n": 6610,
      "ью.\n": 6611,
      "ян": 6612,
      "▁неу": 6613,
      "▁нелег": 6614,
      "▁ор": 6615,
      "▁кров": 6616,
      "▁Пред": 6617,
      "▁состо": 6618,
      "▁Ком": 6619,
      "▁spoken": 6620,
      "▁Наша": 6621,
      "▁хотел.\n": 6622,
      "▁сможем": 6623,
      "▁cond": 6624,
      "ousand": 6625,
      "▁другом": 6626,
      "▁человек,": 6627,
      "▁shopp": 6628,
      "▁голову": 6629,
      "▁планирую": 6630,
      "▁доверять": 6631,
      "▁жале": 6632,
      "▁difference": 6633,
      "▁рестора": 6634,
      "▁скорее": 6635,
      "▁appreci": 6636,
      "ef": 6637,
      "▁пенси": 6638,
      "▁клу": 6639,
      "att": 6640,
      "▁дости": 6641,
      "▁sport": 6642,
      "▁Life": 6643,
      "▁Их": 6644,
      "▁Думаешь,": 6645,
      "▁которого": 6646,
      "▁direct": 6647,
      "▁remind": 6648,
      "▁check": 6649,
      "▁attent": 6650,
      "▁pictures": 6651,
      "▁boyfri": 6652,
      "▁women": 6653,
      "▁present.\n": 6654,
      "▁kitchen.\n": 6655,
      "▁V": 6656,
      "точ": 6657,
      "▁бег": 6658,
      "▁hide": 6659,
      "▁ev": 6660,
      "▁offe": 6661,
      "▁раст": 6662,
      "▁lied": 6663,
      "▁жало": 6664,
      "▁стали": 6665,
      "▁любит.\n": 6666,
      "▁часа": 6667,
      "▁сделала.\n": 6668,
      "▁compan": 6669,
      "▁must've": 6670,
      "▁проблему.\n": 6671,
      "фици": 6672,
      "▁snow.\n": 6673,
      "▁Кажд": 6674,
      "▁фотоаппа": 6675,
      "▁passp": 6676,
      "▁forgotten": 6677,
      "▁inside.\n": 6678,
      "▁дива": 6679,
      "▁flowers.\n": 6680,
      "▁night?\n": 6681,
      "▁использо": 6682,
      "▁возвраща": 6683,
      "▁съездить": 6684,
      "▁карандаш": 6685,
      "ged": 6686,
      "iving": 6687,
      "б.\n": 6688,
      "так": 6689,
      "цо.\n": 6690,
      "▁tie": 6691,
      "▁woke": 6692,
      "▁вход": 6693,
      "▁sense": 6694,
      "▁mout": 6695,
      "ность.\n": 6696,
      "▁loud": 6697,
      "▁eight": 6698,
      "▁рано.\n": 6699,
      "▁припар": 6700,
      "▁отц": 6701,
      "▁Сто": 6702,
      "▁боро": 6703,
      "▁доме.\n": 6704,
      "▁час.\n": 6705,
      "▁Can't": 6706,
      "▁понимаю.\n": 6707,
      "▁lost.\n": 6708,
      "▁закончить": 6709,
      "▁Chin": 6710,
      "▁ожида": 6711,
      "▁читать.\n": 6712,
      "▁узнал": 6713,
      "▁любишь": 6714,
      "▁пообещал": 6715,
      "▁voice.\n": 6716,
      "▁займёт": 6717,
      "▁морожено": 6718,
      "▁offered": 6719,
      "си.\n": 6720,
      "тен": 6721,
      "▁To": 6722,
      "ind.\n": 6723,
      "▁go,": 6724,
      "▁on?\n": 6725,
      "▁step": 6726,
      "ению": 6727,
      "ляр": 6728,
      "▁jack": 6729,
      "▁ты.\n": 6730,
      "▁поможет": 6731,
      "▁buy.\n": 6732,
      "unate": 6733,
      "ставьте": 6734,
      "▁поздно.\n": 6735,
      "▁love.\n": 6736,
      "▁pract": 6737,
      "▁проблема": 6738,
      "иться?\n": 6739,
      "▁why.\n": 6740,
      "▁верит": 6741,
      "▁свида": 6742,
      "▁grandmother": 6743,
      "▁closed.\n": 6744,
      "▁broken.\n": 6745,
      "▁garden": 6746,
      "▁library.\n": 6747,
      "▁permiss": 6748,
      "итель": 6749,
      "ими": 6750,
      "▁tal": 6751,
      "▁вся": 6752,
      "▁tot": 6753,
      "▁lone": 6754,
      "▁Мама": 6755,
      "ash": 6756,
      "▁meat": 6757,
      "рук": 6758,
      "▁Per": 6759,
      "▁happens": 6760,
      "▁lots": 6761,
      "▁live.\n": 6762,
      "▁понять,": 6763,
      "▁problems": 6764,
      "▁weekend": 6765,
      "▁молодо": 6766,
      "▁полити": 6767,
      "▁Дол": 6768,
      "▁девушка.\n": 6769,
      "▁подождать.\n": 6770,
      "▁корот": 6771,
      "▁keys.\n": 6772,
      "ассей": 6773,
      "▁prison.\n": 6774,
      "▁автомобил": 6775,
      "▁future.\n": 6776,
      "▁костю": 6777,
      "▁невинов": 6778,
      "▁introdu": 6779,
      "cri": 6780,
      "ёшь": 6781,
      "▁wood": 6782,
      "▁дан": 6783,
      "него": 6784,
      "stairs.\n": 6785,
      "▁равно": 6786,
      "▁отри": 6787,
      "▁тоже.\n": 6788,
      "▁обсужд": 6789,
      "▁worried.\n": 6790,
      "▁roo": 6791,
      "▁вам.\n": 6792,
      "▁фа": 6793,
      "▁cla": 6794,
      "▁road": 6795,
      "▁vot": 6796,
      "▁vill": 6797,
      "▁твою": 6798,
      "▁Germ": 6799,
      "▁помогать.\n": 6800,
      "▁убил": 6801,
      "▁matter.\n": 6802,
      "▁интересно.\n": 6803,
      "▁hungry": 6804,
      "▁пришёл.\n": 6805,
      "000": 6806,
      "▁Может,": 6807,
      "▁пальто.\n": 6808,
      "▁please?\n": 6809,
      "▁носит": 6810,
      "▁Рождество": 6811,
      "▁огром": 6812,
      "▁амери": 6813,
      "▁figure": 6814,
      "lc": 6815,
      "▁till": 6816,
      "тор": 6817,
      "haps": 6818,
      "on?\n": 6819,
      "▁потра": 6820,
      "▁бассей": 6821,
      "▁удо": 6822,
      "еру": 6823,
      "▁проти": 6824,
      "▁какую": 6825,
      "▁такси.\n": 6826,
      "▁plac": 6827,
      "▁Надо": 6828,
      "▁могу,": 6829,
      "▁carry": 6830,
      "ется?\n": 6831,
      "▁Зря": 6832,
      "▁просто.\n": 6833,
      "▁исправ": 6834,
      "▁decide": 6835,
      "▁believed": 6836,
      "▁собираетесь": 6837,
      "▁плох": 6838,
      "▁desk.\n": 6839,
      "▁ездит": 6840,
      "▁shar": 6841,
      "▁требу": 6842,
      "▁попросили": 6843,
      "▁инст": 6844,
      "▁доверять.\n": 6845,
      "▁канад": 6846,
      "▁lucky": 6847,
      "▁вещи.\n": 6848,
      "перату": 6849,
      "▁purp": 6850,
      "▁спрят": 6851,
      "▁милли": 6852,
      "сс": 6853,
      "чать": 6854,
      "▁–": 6855,
      "▁caus": 6856,
      "▁held": 6857,
      "▁Врем": 6858,
      "ator.\n": 6859,
      "ер.\n": 6860,
      "▁wants.\n": 6861,
      "oose": 6862,
      "▁кор": 6863,
      "ries": 6864,
      "▁Сам": 6865,
      "рыг": 6866,
      "бязательно": 6867,
      "ётся.\n": 6868,
      "▁сказали.\n": 6869,
      "▁prof": 6870,
      "▁book?\n": 6871,
      "▁pair": 6872,
      "▁собираешься": 6873,
      "▁летом": 6874,
      "▁французский?\n": 6875,
      "▁понравилось": 6876,
      "▁учени": 6877,
      "▁язык": 6878,
      "▁съе": 6879,
      "▁плохой": 6880,
      "▁читал": 6881,
      "▁glasses.\n": 6882,
      "▁apologiz": 6883,
      "▁спасибо": 6884,
      "▁telephone": 6885,
      "▁церков": 6886,
      "▁припарко": 6887,
      "бро": 6888,
      "ха.\n": 6889,
      "▁см": 6890,
      "rel": 6891,
      "▁пок": 6892,
      "▁gone.\n": 6893,
      "еле": 6894,
      "▁pot": 6895,
      "▁Wait": 6896,
      "лись.\n": 6897,
      "▁яс": 6898,
      "▁lic": 6899,
      "▁traf": 6900,
      "▁фи": 6901,
      "▁подру": 6902,
      "▁подроб": 6903,
      "▁Зем": 6904,
      "▁слышал.\n": 6905,
      "▁poor": 6906,
      "▁посмотр": 6907,
      "▁difficult.\n": 6908,
      "▁собака.\n": 6909,
      "▁какой-то": 6910,
      "▁decision": 6911,
      "▁possible": 6912,
      "▁returned": 6913,
      "▁absolut": 6914,
      "▁health.\n": 6915,
      "▁avoid": 6916,
      "▁received": 6917,
      "▁жур": 6918,
      "▁traffic": 6919,
      "ued": 6920,
      "дет": 6921,
      "опар": 6922,
      "ском": 6923,
      "ток.\n": 6924,
      "▁amb": 6925,
      "▁непо": 6926,
      "▁beach.\n": 6927,
      "▁lie.\n": 6928,
      "▁пробо": 6929,
      "▁знаешь": 6930,
      "сто.\n": 6931,
      "▁разбуд": 6932,
      "ду,": 6933,
      "мая": 6934,
      "▁поса": 6935,
      "▁death": 6936,
      "▁мед": 6937,
      "▁полностью": 6938,
      "▁vol": 6939,
      "▁smoke": 6940,
      "▁сидит": 6941,
      "▁увидеть.\n": 6942,
      "▁happened?\n": 6943,
      "▁expected.\n": 6944,
      "▁городе.\n": 6945,
      "▁20th.\n": 6946,
      "▁многи": 6947,
      "▁umbrella.\n": 6948,
      "▁футбол.\n": 6949,
      "▁детьми.\n": 6950,
      "▁After": 6951,
      "друг": 6952,
      "и,": 6953,
      "▁sad": 6954,
      "▁Муж": 6955,
      "▁earn": 6956,
      "lew": 6957,
      "▁Уви": 6958,
      "ave.\n": 6959,
      "вать,": 6960,
      "ют?\n": 6961,
      "▁Авто": 6962,
      "▁станет": 6963,
      "▁Рань": 6964,
      "▁winter.\n": 6965,
      "▁dogs": 6966,
      "▁event": 6967,
      "▁помог.\n": 6968,
      "▁answered": 6969,
      "пиши": 6970,
      "▁surprise": 6971,
      "▁control": 6972,
      "▁Большинство": 6973,
      "▁enjoyed": 6974,
      "▁обраща": 6975,
      "▁специ": 6976,
      "▁moment.\n": 6977,
      "▁street": 6978,
      "▁принадлежит": 6979,
      "▁viol": 6980,
      "▁Leave": 6981,
      "▁Раньше": 6982,
      "bb": 6983,
      "».\n": 6984,
      "зан": 6985,
      "н,": 6986,
      "▁ши": 6987,
      "▁сб": 6988,
      "▁mill": 6989,
      "▁ово": 6990,
      "рите": 6991,
      "риан": 6992,
      "▁lad": 6993,
      "▁зме": 6994,
      "eng": 6995,
      "▁press": 6996,
      "▁уча": 6997,
      "▁Ви": 6998,
      "ным,": 6999,
      "▁Пар": 7000,
      "▁жел": 7001,
      "▁помогу": 7002,
      "▁послуш": 7003,
      "▁who's": 7004,
      "▁time,": 7005,
      "щие": 7006,
      "hip": 7007,
      "▁unl": 7008,
      "▁цвето": 7009,
      "▁комнаты.\n": 7010,
      "▁sleeping.\n": 7011,
      "▁понять.\n": 7012,
      "▁watch.\n": 7013,
      "▁вашего": 7014,
      "▁темно": 7015,
      "▁грузови": 7016,
      "▁ненавидит": 7017,
      "▁language": 7018,
      "▁Подож": 7019,
      "▁обязательно": 7020,
      "▁husband.\n": 7021,
      "▁collect": 7022,
      "▁taxi": 7023,
      "▁solut": 7024,
      "▁аэропорт": 7025,
      "▁Neither": 7026,
      "ib": 7027,
      "бу.\n": 7028,
      "▁ого": 7029,
      "ition.\n": 7030,
      "▁picked": 7031,
      "лов": 7032,
      "▁жа": 7033,
      "▁Дом": 7034,
      "▁раз,": 7035,
      "▁вести": 7036,
      "▁вашу": 7037,
      "▁coat.\n": 7038,
      "▁стары": 7039,
      "▁пожалуй,": 7040,
      "▁twice": 7041,
      "▁пах": 7042,
      "▁wonderful": 7043,
      "▁pretended": 7044,
      "▁автобусе": 7045,
      "алось,": 7046,
      "▁воспо": 7047,
      "▁months.\n": 7048,
      "▁смотрит": 7049,
      "▁airport.\n": 7050,
      "▁постели.\n": 7051,
      "o,": 7052,
      "ruct": 7053,
      "вом": 7054,
      "тно": 7055,
      "▁р": 7056,
      "▁dut": 7057,
      "▁dance.\n": 7058,
      "▁опла": 7059,
      "▁hol": 7060,
      "▁провели": 7061,
      "▁mem": 7062,
      "▁know?\n": 7063,
      "▁дочери": 7064,
      "▁отдох": 7065,
      "дио": 7066,
      "▁with?\n": 7067,
      "▁Поло": 7068,
      "▁День": 7069,
      "▁своему": 7070,
      "▁shirt.\n": 7071,
      "▁try.\n": 7072,
      "чески": 7073,
      "▁New": 7074,
      "▁unlike": 7075,
      "▁speaking": 7076,
      "▁guy.\n": 7077,
      "▁собаку": 7078,
      "▁решил,": 7079,
      "▁совершил": 7080,
      "▁tonight?\n": 7081,
      "▁готовы": 7082,
      "▁danger.\n": 7083,
      "▁ужасно": 7084,
      "▁standing": 7085,
      "▁Перестань": 7086,
      "▁спросить": 7087,
      "▁футбол": 7088,
      "▁поцеловал": 7089,
      "▁внутр": 7090,
      "▁экзамен.\n": 7091,
      "влека": 7092,
      "ered.\n": 7093,
      "here": 7094,
      "▁bor": 7095,
      "▁cent": 7096,
      "▁кро": 7097,
      "ны,": 7098,
      "▁we've": 7099,
      "▁пробы": 7100,
      "ля.\n": 7101,
      "▁стен": 7102,
      "▁agree.\n": 7103,
      "▁too?\n": 7104,
      "альный": 7105,
      "грать": 7106,
      "▁prog": 7107,
      "▁prove": 7108,
      "▁месте.\n": 7109,
      "▁calling": 7110,
      "▁возду": 7111,
      "▁друг.\n": 7112,
      "▁занята.\n": 7113,
      "▁believes": 7114,
      "▁сидеть": 7115,
      "полне": 7116,
      "▁ожидал": 7117,
      "▁цветы.\n": 7118,
      "▁больницу.\n": 7119,
      "▁машину?\n": 7120,
      "▁волну": 7121,
      "▁norm": 7122,
      "▁bread.\n": 7123,
      "▁basket": 7124,
      "▁church": 7125,
      "▁heavy": 7126,
      "co": 7127,
      "ling": 7128,
      "▁непро": 7129,
      "▁поправ": 7130,
      "▁оправ": 7131,
      "▁cit": 7132,
      "▁lu": 7133,
      "▁gam": 7134,
      "▁утвер": 7135,
      "кого.\n": 7136,
      "да?\n": 7137,
      "▁хотя": 7138,
      "▁going.\n": 7139,
      "▁forced": 7140,
      "▁meat.\n": 7141,
      "▁вокз": 7142,
      "▁боюсь": 7143,
      "▁был.\n": 7144,
      "▁кусо": 7145,
      "▁lose.\n": 7146,
      "▁dem": 7147,
      "▁Что-то": 7148,
      "▁сам.\n": 7149,
      "▁cove": 7150,
      "▁стари": 7151,
      "алось.\n": 7152,
      "▁back?\n": 7153,
      "▁остану": 7154,
      "▁сделаем": 7155,
      "▁aware": 7156,
      "▁время,": 7157,
      "▁понимает": 7158,
      "▁двадцатого": 7159,
      "▁скучно.\n": 7160,
      "▁долларов": 7161,
      "▁throw": 7162,
      "▁разоз": 7163,
      "▁английски": 7164,
      "▁sounds": 7165,
      "▁colle": 7166,
      "▁жарко.\n": 7167,
      "▁Твоя": 7168,
      "▁faster": 7169,
      "▁apartment": 7170,
      "▁realized": 7171,
      "▁пишет": 7172,
      "лак": 7173,
      "ёс": 7174,
      "▁сно": 7175,
      "▁dance": 7176,
      "▁доказ": 7177,
      "шек.\n": 7178,
      "▁обла": 7179,
      "▁такси": 7180,
      "▁say?\n": 7181,
      "▁hurry": 7182,
      "▁надеялся,": 7183,
      "▁Ваше": 7184,
      "▁cook.\n": 7185,
      "ского": 7186,
      "ject.\n": 7187,
      "▁влюб": 7188,
      "▁baseball": 7189,
      "▁тихо": 7190,
      "▁классе.\n": 7191,
      "▁zoo": 7192,
      "▁четыре": 7193,
      "▁responsi": 7194,
      "ness": 7195,
      "бе.\n": 7196,
      "▁3": 7197,
      "▁war.\n": 7198,
      "▁мать.\n": 7199,
      "▁cou": 7200,
      "ors.\n": 7201,
      "ний.\n": 7202,
      "нича": 7203,
      "▁doc": 7204,
      "▁жить.\n": 7205,
      "ляю": 7206,
      "▁saved": 7207,
      "▁Моё": 7208,
      "пад": 7209,
      "▁этим.\n": 7210,
      "ение,": 7211,
      "▁почему.\n": 7212,
      "▁домой?\n": 7213,
      "▁fine.\n": 7214,
      "▁окна.\n": 7215,
      "▁лест": 7216,
      "▁парень.\n": 7217,
      "▁18": 7218,
      "▁вашем": 7219,
      "▁boys": 7220,
      "▁странно.\n": 7221,
      "▁ожидал.\n": 7222,
      "▁велосипеде.\n": 7223,
      "▁звонил": 7224,
      "▁песню.\n": 7225,
      "▁всеми": 7226,
      "▁деньги,": 7227,
      "▁сумас": 7228,
      "▁Show": 7229,
      "▁одолжить": 7230,
      "▁извин": 7231,
      "▁перестал": 7232,
      "▁Exc": 7233,
      "▁умира": 7234,
      "▁covered": 7235,
      "дила": 7236,
      "круг": 7237,
      "щего": 7238,
      "▁test": 7239,
      "▁mir": 7240,
      "▁fif": 7241,
      "нес": 7242,
      "вание": 7243,
      "le?\n": 7244,
      "▁рев": 7245,
      "▁другие": 7246,
      "▁предо": 7247,
      "▁полу": 7248,
      "▁делаю.\n": 7249,
      "▁smart": 7250,
      "▁leaves": 7251,
      "▁слово": 7252,
      "▁sleeping": 7253,
      "▁печень": 7254,
      "▁спор": 7255,
      "▁бутер": 7256,
      "▁просить": 7257,
      "▁ошибка.\n": 7258,
      "▁городе": 7259,
      "▁changed.\n": 7260,
      "▁сообщение.\n": 7261,
      "▁exam.\n": 7262,
      "▁ударил": 7263,
      "▁шанс.\n": 7264,
      "▁какие-нибудь": 7265,
      "рудно": 7266,
      "▁выиграл": 7267,
      "▁Мальчик": 7268,
      "eg": 7269,
      "ге.\n": 7270,
      "▁ought": 7271,
      "▁bur": 7272,
      "▁пользу": 7273,
      "▁че": 7274,
      "▁зел": 7275,
      "▁кли": 7276,
      "▁тал": 7277,
      "тить.\n": 7278,
      "▁store.\n": 7279,
      "▁кораб": 7280,
      "▁хочешь,": 7281,
      "▁Дверь": 7282,
      "▁виде": 7283,
      "▁аб": 7284,
      "▁намерен": 7285,
      "йте.\n": 7286,
      "▁talks": 7287,
      "ish.\n": 7288,
      "▁something?\n": 7289,
      "▁price": 7290,
      "▁attention": 7291,
      "▁кого-то": 7292,
      "▁происходит": 7293,
      "▁painted": 7294,
      "▁устал.\n": 7295,
      "▁поеду": 7296,
      "▁inside": 7297,
      "▁неправда.\n": 7298,
      "▁зовут.\n": 7299,
      "▁концов": 7300,
      "▁guitar.\n": 7301,
      "▁неправильно.\n": 7302,
      "▁дальше.\n": 7303,
      "▁medicine": 7304,
      "▁тюрьме.\n": 7305,
      "▁carefully.\n": 7306,
      "▁говорю.\n": 7307,
      "▁мёрт": 7308,
      "▁Каждый": 7309,
      "▁Perhaps": 7310,
      "▁лестниц": 7311,
      "book": 7312,
      "дали": 7313,
      "рк": 7314,
      "▁6": 7315,
      "▁лод": 7316,
      "▁сред": 7317,
      "▁ma": 7318,
      "▁поконч": 7319,
      "▁огра": 7320,
      "▁оружи": 7321,
      "▁бас": 7322,
      "надцать": 7323,
      "дете": 7324,
      "▁station": 7325,
      "▁приед": 7326,
      "бычно": 7327,
      "ached": 7328,
      "▁worse.\n": 7329,
      "▁ring": 7330,
      "▁rarely": 7331,
      "▁вино.\n": 7332,
      "▁перезво": 7333,
      "зап": 7334,
      "vent": 7335,
      "▁цело": 7336,
      "▁heart.\n": 7337,
      "▁staying": 7338,
      "▁student.\n": 7339,
      "▁school?\n": 7340,
      "▁недели.\n": 7341,
      "▁согласен.\n": 7342,
      "▁город.\n": 7343,
      "▁скажет": 7344,
      "▁научился": 7345,
      "▁учителя": 7346,
      "▁заплатил": 7347,
      "▁богаты": 7348,
      "▁explained": 7349,
      "▁историю.\n": 7350,
      "▁половины": 7351,
      "▁выбора.\n": 7352,
      "▁прощения.\n": 7353,
      "▁равно,": 7354,
      "▁является": 7355,
      "▁шляпу.\n": 7356,
      "▁бабуш": 7357,
      "▁ошибок.\n": 7358,
      "▁американ": 7359,
      "ied.\n": 7360,
      "день": 7361,
      "ок.\n": 7362,
      "ск": 7363,
      "омн": 7364,
      "▁barely": 7365,
      "▁пог": 7366,
      "ен?\n": 7367,
      "рить.\n": 7368,
      "▁зр": 7369,
      "▁fres": 7370,
      "arr": 7371,
      "ники": 7372,
      "▁замо": 7373,
      "▁вый": 7374,
      "▁knife.\n": 7375,
      "▁коль": 7376,
      "▁отк": 7377,
      "▁Постара": 7378,
      "ший.\n": 7379,
      "▁sear": 7380,
      "▁sof": 7381,
      "▁любил": 7382,
      "▁locked": 7383,
      "ound.\n": 7384,
      "▁встал": 7385,
      "▁room?\n": 7386,
      "▁blood": 7387,
      "коном": 7388,
      "▁flu": 7389,
      "▁пойти.\n": 7390,
      "▁learning": 7391,
      "▁them?\n": 7392,
      "▁вернусь": 7393,
      "▁зоопар": 7394,
      "▁repl": 7395,
      "▁брат.\n": 7396,
      "▁месяца": 7397,
      "▁driving": 7398,
      "▁Японии": 7399,
      "▁выбор.\n": 7400,
      "velop": 7401,
      "▁depend": 7402,
      "▁lucky.\n": 7403,
      "▁opinion.\n": 7404,
      "▁o'clock.\n": 7405,
      "▁сумасшед": 7406,
      "xt.\n": 7407,
      "▁id": 7408,
      "▁пото": 7409,
      "▁fired": 7410,
      "▁Очень": 7411,
      "лан": 7412,
      "▁Полагаю,": 7413,
      "▁whatever": 7414,
      "вался.\n": 7415,
      "▁doing?\n": 7416,
      "ялся.\n": 7417,
      "▁Маши": 7418,
      "▁назад": 7419,
      "▁хочешь.\n": 7420,
      "▁приходит": 7421,
      "▁деньги?\n": 7422,
      "▁опасно.\n": 7423,
      "▁отсут": 7424,
      "▁serious.\n": 7425,
      "▁улыба": 7426,
      "▁спеш": 7427,
      "▁услышал": 7428,
      "▁позабо": 7429,
      "▁joke.\n": 7430,
      "▁arrested": 7431,
      "▁пианино.\n": 7432,
      "▁забудьте": 7433,
      "▁stolen": 7434,
      "▁пяти": 7435,
      "вёз": 7436,
      "rat": 7437,
      "жал.\n": 7438,
      "чку": 7439,
      "▁sou": 7440,
      "▁thirst": 7441,
      "▁зар": 7442,
      "логи": 7443,
      "▁Это,": 7444,
      "▁состав": 7445,
      "▁же.\n": 7446,
      "▁болит": 7447,
      "станов": 7448,
      "ну?\n": 7449,
      "▁очки.\n": 7450,
      "▁ju": 7451,
      "ored.\n": 7452,
      "▁one's": 7453,
      "▁стакан": 7454,
      "▁Кого": 7455,
      "▁твоего": 7456,
      "▁нужда": 7457,
      "▁moving": 7458,
      "▁помы": 7459,
      "▁day?\n": 7460,
      "▁apples": 7461,
      "▁понял.\n": 7462,
      "▁pois": 7463,
      "▁парень": 7464,
      "▁walking": 7465,
      "▁cheap": 7466,
      "▁10": 7467,
      "▁закончил": 7468,
      "▁кое-ка": 7469,
      "▁ненавижу": 7470,
      "▁новости.\n": 7471,
      "▁едет": 7472,
      "▁quickly": 7473,
      "▁ключ.\n": 7474,
      "▁починить": 7475,
      "▁filled": 7476,
      "▁Само": 7477,
      "way.\n": 7478,
      "чка": 7479,
      "ять.\n": 7480,
      "ток": 7481,
      "▁вет": 7482,
      "▁погода": 7483,
      "▁cous": 7484,
      "▁land": 7485,
      "▁fight.\n": 7486,
      "стил": 7487,
      "▁pack": 7488,
      "▁kil": 7489,
      "▁еды.\n": 7490,
      "▁forward": 7491,
      "▁Пи": 7492,
      "▁Учи": 7493,
      "та,": 7494,
      "▁оче": 7495,
      "▁избав": 7496,
      "▁rud": 7497,
      "▁Child": 7498,
      "▁For": 7499,
      "▁Eu": 7500,
      "▁road.\n": 7501,
      "▁\"Н": 7502,
      "▁конф": 7503,
      "▁scream": 7504,
      "▁пойдёт": 7505,
      "▁родителей.\n": 7506,
      "▁Дожд": 7507,
      "▁французском.\n": 7508,
      "▁врач.\n": 7509,
      "▁случилось?\n": 7510,
      "▁weather.\n": 7511,
      "▁множе": 7512,
      "▁strong.\n": 7513,
      "▁смерти": 7514,
      "▁плакать.\n": 7515,
      "▁hotel.\n": 7516,
      "▁arrested.\n": 7517,
      "▁cancel": 7518,
      "▁funny.\n": 7519,
      "▁gener": 7520,
      "▁vegetab": 7521,
      "▁recommend": 7522,
      "▁absolutely": 7523,
      "дно,": 7524,
      "ска": 7525,
      "▁свет.\n": 7526,
      "▁dest": 7527,
      "▁опы": 7528,
      "ened": 7529,
      "ресо": 7530,
      "дает": 7531,
      "ема": 7532,
      "▁зако": 7533,
      "▁ним.\n": 7534,
      "▁будь": 7535,
      "кун": 7536,
      "ится?\n": 7537,
      "▁Ещё": 7538,
      "▁goodby": 7539,
      "▁None": 7540,
      "▁leave?\n": 7541,
      "жает": 7542,
      "пусти": 7543,
      "▁хорошо,": 7544,
      "▁начали": 7545,
      "▁job?\n": 7546,
      "▁поменя": 7547,
      "▁него.\n": 7548,
      "ения?\n": 7549,
      "▁drinks": 7550,
      "▁самостоя": 7551,
      "▁имею,": 7552,
      "▁hot.\n": 7553,
      "▁добро": 7554,
      "▁правда?\n": 7555,
      "▁дерево.\n": 7556,
      "▁rest.\n": 7557,
      "▁девушка": 7558,
      "▁снег": 7559,
      "▁опасности.\n": 7560,
      "▁зуб": 7561,
      "▁patient": 7562,
      "▁сработа": 7563,
      "▁drove": 7564,
      "▁зарпла": 7565,
      "▁Children": 7566,
      ",000": 7567,
      "чен": 7568,
      "▁Tw": 7569,
      "▁mention": 7570,
      "▁подел": 7571,
      "▁cake.\n": 7572,
      "▁laz": 7573,
      "ese.\n": 7574,
      "ates.\n": 7575,
      "▁next.\n": 7576,
      "▁Прав": 7577,
      "▁придё": 7578,
      "▁Уже": 7579,
      "▁Позво": 7580,
      "▁изоб": 7581,
      "▁разбил": 7582,
      "▁Bring": 7583,
      "▁Cl": 7584,
      "▁слома": 7585,
      "ose.\n": 7586,
      "▁hope.\n": 7587,
      "▁ответа.\n": 7588,
      "▁смогли": 7589,
      "▁разговаривал": 7590,
      "▁ошибки.\n": 7591,
      "▁добраться": 7592,
      "▁around.\n": 7593,
      "▁работу?\n": 7594,
      "▁strange.\n": 7595,
      "▁OK?\n": 7596,
      "▁moment": 7597,
      "▁Мария": 7598,
      "▁смерти.\n": 7599,
      "▁Christmas.\n": 7600,
      "▁airport": 7601,
      "▁soldi": 7602,
      "▁креп": 7603,
      "▁Пойдём": 7604,
      "▁ожидал,": 7605,
      "▁honest": 7606,
      "▁восемь": 7607,
      "▁pulled": 7608,
      "вучит": 7609,
      "▁appreciate": 7610,
      "gest": 7611,
      "tt": 7612,
      "um.\n": 7613,
      "мет": 7614,
      "скую": 7615,
      "vest": 7616,
      "▁thousand": 7617,
      "▁head.\n": 7618,
      "▁Один": 7619,
      "▁ste": 7620,
      "▁Well": 7621,
      "▁присо": 7622,
      "▁корм": 7623,
      "▁меня?\n": 7624,
      "▁suff": 7625,
      "▁так?\n": 7626,
      "▁могу.\n": 7627,
      "▁seeing": 7628,
      "рались": 7629,
      "▁company": 7630,
      "▁Ли": 7631,
      "▁appear": 7632,
      "▁возможность": 7633,
      "▁велосипед": 7634,
      "▁внимания.\n": 7635,
      "▁брата.\n": 7636,
      "▁иностран": 7637,
      "▁выиграть.\n": 7638,
      "▁bag.\n": 7639,
      "▁paper.\n": 7640,
      "▁универ": 7641,
      "▁jealous.\n": 7642,
      "▁attention.\n": 7643,
      "▁Europ": 7644,
      "ted.\n": 7645,
      "лёт": 7646,
      "нц": 7647,
      "нный": 7648,
      "▁er": 7649,
      "▁сюда.\n": 7650,
      "inted": 7651,
      "▁date": 7652,
      "▁постара": 7653,
      "▁custom": 7654,
      "▁fre": 7655,
      "ниться": 7656,
      "▁occ": 7657,
      "▁Вер": 7658,
      "lebr": 7659,
      "вые.\n": 7660,
      "▁muse": 7661,
      "cell": 7662,
      "▁многое": 7663,
      "читать": 7664,
      "ступа": 7665,
      "ograp": 7666,
      "▁pretend": 7667,
      "▁города.\n": 7668,
      "▁minute.\n": 7669,
      "▁explan": 7670,
      "▁супер": 7671,
      "▁listened": 7672,
      "▁объясн": 7673,
      "▁считает,": 7674,
      "▁nearly": 7675,
      "▁words": 7676,
      "duct": 7677,
      "▁болен.\n": 7678,
      "▁dictionary.\n": 7679,
      "▁bank.\n": 7680,
      "▁невозможно.\n": 7681,
      "▁Хорошо": 7682,
      "▁Позвольте": 7683,
      "▁guilty.\n": 7684,
      "arent": 7685,
      "кнул": 7686,
      "лал": 7687,
      "▁Turn": 7688,
      "▁сро": 7689,
      "▁вполне": 7690,
      "▁мере": 7691,
      "▁повес": 7692,
      "рип": 7693,
      "▁наве": 7694,
      "ash.\n": 7695,
      "▁тё": 7696,
      "▁трое": 7697,
      "▁задал": 7698,
      "▁Поч": 7699,
      "▁hist": 7700,
      "▁дела.\n": 7701,
      "▁как-то": 7702,
      "ряс": 7703,
      "комен": 7704,
      "шая.\n": 7705,
      "▁правила.\n": 7706,
      "▁val": 7707,
      "▁reading.\n": 7708,
      "▁waiting.\n": 7709,
      "▁пожалуйста": 7710,
      "▁проблем.\n": 7711,
      "▁fine": 7712,
      "плат": 7713,
      "▁дорогу.\n": 7714,
      "▁дороге": 7715,
      "вали?\n": 7716,
      "▁Прине": 7717,
      "▁подар": 7718,
      "▁пор,": 7719,
      "▁driver.\n": 7720,
      "▁французского.\n": 7721,
      "▁говоря,": 7722,
      "▁glasses": 7723,
      "▁headache": 7724,
      "▁language.\n": 7725,
      "▁захочет": 7726,
      "▁baby.\n": 7727,
      "▁обязан": 7728,
      "▁restaurant.\n": 7729,
      "▁Any": 7730,
      "▁warned": 7731,
      "▁celebr": 7732,
      "▁Jackson": 7733,
      "▁тому,": 7734,
      "▁superm": 7735,
      "unately,": 7736,
      "▁claim": 7737,
      "ded": 7738,
      "emp": 7739,
      "host": 7740,
      "в?\n": 7741,
      "ключи": 7742,
      "чная": 7743,
      "▁test.\n": 7744,
      "ins.\n": 7745,
      "▁нетер": 7746,
      "▁cell": 7747,
      "▁Wat": 7748,
      "▁Make": 7749,
      "▁моему": 7750,
      "▁сделал,": 7751,
      "▁self": 7752,
      "▁образ": 7753,
      "▁такую": 7754,
      "▁вежли": 7755,
      "▁говорили.\n": 7756,
      "ili": 7757,
      "матри": 7758,
      "▁спит": 7759,
      "▁нужно?\n": 7760,
      "▁no.\n": 7761,
      "цию": 7762,
      "▁club": 7763,
      "▁offic": 7764,
      "ресси": 7765,
      "▁call.\n": 7766,
      "▁others.\n": 7767,
      "▁dogs.\n": 7768,
      "▁подозре": 7769,
      "▁помню": 7770,
      "▁sched": 7771,
      "▁имени": 7772,
      "▁голосо": 7773,
      "▁third": 7774,
      "▁weeks": 7775,
      "▁weeks.\n": 7776,
      "▁карто": 7777,
      "▁удивился,": 7778,
      "▁забыл,": 7779,
      "▁практи": 7780,
      "хая": 7781,
      "▁сестра.\n": 7782,
      "▁correct.\n": 7783,
      "▁сломал": 7784,
      "▁dropped": 7785,
      "▁priv": 7786,
      "▁роман": 7787,
      "▁Возь": 7788,
      "▁сходить": 7789,
      "▁неплохо": 7790,
      "▁company.\n": 7791,
      "▁unlikely": 7792,
      "▁баскет": 7793,
      "▁supermark": 7794,
      "fl": 7795,
      "един": 7796,
      "▁пово": 7797,
      "▁нам.\n": 7798,
      "ником.\n": 7799,
      "дай": 7800,
      "десят": 7801,
      "▁ur": 7802,
      "▁gold": 7803,
      "▁weak": 7804,
      "als.\n": 7805,
      "стом.\n": 7806,
      "▁Пора": 7807,
      "▁вокруг": 7808,
      "жно.\n": 7809,
      "▁ноги.\n": 7810,
      "▁день,": 7811,
      "▁дев": 7812,
      "▁God": 7813,
      "▁уверен.\n": 7814,
      "▁Ле": 7815,
      "▁живёт.\n": 7816,
      "ured.\n": 7817,
      "▁sleepy.\n": 7818,
      "верить": 7819,
      "▁дорогу": 7820,
      "▁двадцать": 7821,
      "▁attend": 7822,
      "▁complic": 7823,
      "▁desk": 7824,
      "▁показать": 7825,
      "▁температу": 7826,
      "▁происходит?\n": 7827,
      "▁родствен": 7828,
      "▁прошлы": 7829,
      "▁chick": 7830,
      "▁Only": 7831,
      "▁Говоря": 7832,
      "▁apologized": 7833,
      "▁замуж.\n": 7834,
      "▁прекрасно": 7835,
      "▁assist": 7836,
      "▁kitchen": 7837,
      "▁аэропор": 7838,
      "▁boss": 7839,
      "▁становится": 7840,
      "▁момент": 7841,
      "▁impossible": 7842,
      "▁idi": 7843,
      "con": 7844,
      "ivers": 7845,
      "uge": 7846,
      "дать.\n": 7847,
      "лер": 7848,
      "▁ahe": 7849,
      "▁пью": 7850,
      "▁сна": 7851,
      "▁free.\n": 7852,
      "▁ghost": 7853,
      "▁in?\n": 7854,
      "▁выпол": 7855,
      "▁прого": 7856,
      "леду": 7857,
      "▁like?\n": 7858,
      "▁Доб": 7859,
      "▁каком": 7860,
      "▁новые": 7861,
      "▁говорила": 7862,
      "▁Three": 7863,
      "▁ещё.\n": 7864,
      "просите": 7865,
      "▁люблю.\n": 7866,
      "▁comfort": 7867,
      "▁сможете": 7868,
      "жусь": 7869,
      "▁scar": 7870,
      "▁hated": 7871,
      "итай": 7872,
      "▁чай": 7873,
      "▁умере": 7874,
      "▁моложе": 7875,
      "▁месяца.\n": 7876,
      "▁ужина": 7877,
      "▁горд": 7878,
      "▁Из-за": 7879,
      "▁риско": 7880,
      "▁найду": 7881,
      "▁жалу": 7882,
      "▁канаде": 7883,
      "▁trip.\n": 7884,
      "▁мяч": 7885,
      "▁start.\n": 7886,
      "▁necessary": 7887,
      "▁худо": 7888,
      "▁холодильни": 7889,
      "▁million": 7890,
      "▁нетерп": 7891,
      "uff": 7892,
      "луч": 7893,
      "смо": 7894,
      "▁mod": 7895,
      "рик": 7896,
      "▁furn": 7897,
      "ots.\n": 7898,
      "▁bear": 7899,
      "ative.\n": 7900,
      "ets.\n": 7901,
      "▁проф": 7902,
      "▁отлож": 7903,
      "▁воро": 7904,
      "▁воду.\n": 7905,
      "▁Sorr": 7906,
      "шим.\n": 7907,
      "▁таких": 7908,
      "▁думаю.\n": 7909,
      "ремен": 7910,
      "▁секун": 7911,
      "▁преу": 7912,
      "ный,": 7913,
      "▁Park": 7914,
      "▁managed": 7915,
      "цик": 7916,
      "▁часы": 7917,
      "▁Ис": 7918,
      "ately": 7919,
      "▁win?\n": 7920,
      "ume": 7921,
      "▁Хват": 7922,
      "▁raining": 7923,
      "▁школы.\n": 7924,
      "▁остановить.\n": 7925,
      "▁relax": 7926,
      "▁cost?\n": 7927,
      "▁любимая": 7928,
      "▁Будь": 7929,
      "▁address.\n": 7930,
      "▁математи": 7931,
      "▁opinion": 7932,
      "▁самолёт": 7933,
      "▁United": 7934,
      "▁raised": 7935,
      "▁уговорить": 7936,
      "▁особенно": 7937,
      "▁Хватит": 7938,
      "ced.\n": 7939,
      "way": 7940,
      "дви": 7941,
      "тк": 7942,
      "юрод": 7943,
      "▁сре": 7944,
      "ins": 7945,
      "ноп": 7946,
      "▁нашу": 7947,
      "▁напи": 7948,
      "▁найти.\n": 7949,
      "нит.\n": 7950,
      "нию.\n": 7951,
      "▁suit": 7952,
      "▁шка": 7953,
      "ный?\n": 7954,
      "▁Ев": 7955,
      "▁будет?\n": 7956,
      "▁триста": 7957,
      "▁тридцати": 7958,
      "▁сами": 7959,
      "▁arm.\n": 7960,
      "▁rob": 7961,
      "▁lives.\n": 7962,
      "▁девя": 7963,
      "▁обес": 7964,
      "▁трудно.\n": 7965,
      "▁страниц": 7966,
      "▁играли": 7967,
      "▁понравилось.\n": 7968,
      "▁правда,": 7969,
      "▁учитель.\n": 7970,
      "▁женщина.\n": 7971,
      "▁ищет": 7972,
      "▁по-французски,": 7973,
      "▁терпеть": 7974,
      "▁Будем": 7975,
      "▁message": 7976,
      "▁delic": 7977,
      "▁детям": 7978,
      "ible.\n": 7979,
      "rup": 7980,
      "ination.\n": 7981,
      "▁dating": 7982,
      "▁ben": 7983,
      "▁lit": 7984,
      "▁giving": 7985,
      "нику": 7986,
      "▁beer": 7987,
      "▁Всем": 7988,
      "▁защи": 7989,
      "▁Увер": 7990,
      "ific": 7991,
      "▁разоб": 7992,
      "▁sock": 7993,
      "▁help,": 7994,
      "▁хорошим": 7995,
      "▁They'll": 7996,
      "▁распро": 7997,
      "часто": 7998,
      "▁думал": 7999,
      "ствовал": 8000,
      "▁другу.\n": 8001,
      "▁занят": 8002,
      "▁мире.\n": 8003,
      "▁dishes.\n": 8004,
      "▁фор": 8005,
      "▁парке": 8006,
      "▁надеется,": 8007,
      "▁подарил": 8008,
      "▁золо": 8009,
      "▁другого": 8010,
      "▁одежду.\n": 8011,
      "▁common": 8012,
      "▁простуд": 8013,
      "▁вернётся": 8014,
      "▁piano.\n": 8015,
      "▁capt": 8016,
      "▁танцевать.\n": 8017,
      "▁Sunday": 8018,
      "▁wedding": 8019,
      "▁obviously": 8020,
      "▁Excuse": 8021,
      "▁Well,": 8022,
      "му.\n": 8023,
      "меня": 8024,
      "хар": 8025,
      "ёк": 8026,
      "ёст": 8027,
      "▁mail": 8028,
      "▁уез": 8029,
      "▁мор": 8030,
      "▁knife": 8031,
      "ime": 8032,
      "▁приказ": 8033,
      "▁теп": 8034,
      "▁вон": 8035,
      "▁подаль": 8036,
      "▁everybody.\n": 8037,
      "гите": 8038,
      "алась.\n": 8039,
      "▁special": 8040,
      "▁Вода": 8041,
      "▁ему,": 8042,
      "▁случиться.\n": 8043,
      "щее.\n": 8044,
      "▁Пробл": 8045,
      "▁glove": 8046,
      "▁cat.\n": 8047,
      "▁Stre": 8048,
      "▁удивлен": 8049,
      "ocked": 8050,
      "▁использу": 8051,
      "▁внутри": 8052,
      "▁Sometim": 8053,
      "▁situation.\n": 8054,
      "▁eggs": 8055,
      "▁paper": 8056,
      "▁автомобиль": 8057,
      "▁называется": 8058,
      "▁двоюрод": 8059,
      "▁быстрее": 8060,
      "▁Извините,": 8061,
      "ts": 8062,
      "тый": 8063,
      "omb": 8064,
      "▁sang": 8065,
      "▁небе": 8066,
      "ve.\n": 8067,
      "▁повы": 8068,
      "▁бере": 8069,
      "▁кноп": 8070,
      "▁though": 8071,
      "▁washed": 8072,
      "▁рада,": 8073,
      "лась": 8074,
      "титься": 8075,
      "▁red.\n": 8076,
      "▁достав": 8077,
      "▁отца": 8078,
      "▁tear": 8079,
      "▁text": 8080,
      "▁было?\n": 8081,
      "жим": 8082,
      "тельная": 8083,
      "▁сты": 8084,
      "люсь": 8085,
      "▁works.\n": 8086,
      "▁думали,": 8087,
      "▁unf": 8088,
      "▁unha": 8089,
      "▁hoped": 8090,
      "дится.\n": 8091,
      "▁plans.\n": 8092,
      "▁others": 8093,
      "ения,": 8094,
      "▁счастливы.\n": 8095,
      "▁ездить": 8096,
      "ились?\n": 8097,
      "ское": 8098,
      "▁женщина": 8099,
      "▁entire": 8100,
      "▁entered": 8101,
      "▁писать": 8102,
      "▁чувствовал": 8103,
      "▁предупрежд": 8104,
      "▁driver's": 8105,
      "▁повтори": 8106,
      "▁Дождь": 8107,
      "▁Говорят,": 8108,
      "ne": 8109,
      "umb": 8110,
      "zz": 8111,
      "сер": 8112,
      "сит": 8113,
      "щего.\n": 8114,
      "▁ще": 8115,
      "▁нал": 8116,
      "▁счёт": 8117,
      "▁toy": 8118,
      "▁cig": 8119,
      "▁pool.\n": 8120,
      "▁ушла": 8121,
      "▁invest": 8122,
      "лови": 8123,
      "▁Пер": 8124,
      "▁прит": 8125,
      "дици": 8126,
      "▁Поверить": 8127,
      "▁anywhere.\n": 8128,
      "▁делали": 8129,
      "▁думаете.\n": 8130,
      "люсь.\n": 8131,
      "▁loc": 8132,
      "▁talking.\n": 8133,
      "▁Зна": 8134,
      "▁позже.\n": 8135,
      "▁которое": 8136,
      "▁которая": 8137,
      "▁лежит": 8138,
      "▁partic": 8139,
      "▁hurt.\n": 8140,
      "▁объяснил": 8141,
      "▁объяснить": 8142,
      "▁встретиться": 8143,
      "▁нашего": 8144,
      "ствует": 8145,
      "▁тысяч": 8146,
      "▁gift.\n": 8147,
      "▁information": 8148,
      "▁поху": 8149,
      "▁круп": 8150,
      "▁занятие.\n": 8151,
      "▁двери.\n": 8152,
      "▁шахматы.\n": 8153,
      "▁survive": 8154,
      "▁лыжах.\n": 8155,
      "▁популяр": 8156,
      "▁зелё": 8157,
      "▁суперма": 8158,
      "ба.\n": 8159,
      "вли": 8160,
      "нали": 8161,
      "чение": 8162,
      "ёв": 8163,
      "▁ему.\n": 8164,
      "omed": 8165,
      "▁встав": 8166,
      "▁Твой": 8167,
      "▁нечасто": 8168,
      "▁попал": 8169,
      "гово": 8170,
      "▁fro": 8171,
      "erc": 8172,
      "erat": 8173,
      "▁устро": 8174,
      "idence.\n": 8175,
      "волен": 8176,
      "хов": 8177,
      "ваем": 8178,
      "▁привид": 8179,
      "▁Пока": 8180,
      "▁Hey,": 8181,
      "▁jud": 8182,
      "aked": 8183,
      "▁всех.\n": 8184,
      "▁excell": 8185,
      "▁стоял": 8186,
      "▁Never": 8187,
      "▁собако": 8188,
      "гия": 8189,
      "цио": 8190,
      "▁плачет.\n": 8191,
      "▁thought.\n": 8192,
      "▁Иди": 8193,
      "▁сегодняш": 8194,
      "яться,": 8195,
      "▁disag": 8196,
      "▁fault": 8197,
      "▁starting": 8198,
      "▁получили": 8199,
      "▁разгово": 8200,
      "▁самое.\n": 8201,
      "▁promise.\n": 8202,
      "▁advice": 8203,
      "bey": 8204,
      "▁месяц.\n": 8205,
      "▁случай": 8206,
      "▁тех,": 8207,
      "▁познакомился": 8208,
      "▁smile.\n": 8209,
      "▁ребёнком.\n": 8210,
      "▁floor": 8211,
      "▁пожар": 8212,
      "▁попробовать": 8213,
      "▁гитаре.\n": 8214,
      "▁угро": 8215,
      "▁состоянии": 8216,
      "▁Sunday.\n": 8217,
      "▁момен": 8218,
      "▁Врач": 8219,
      "▁Скоро": 8220,
      "▁убеждён,": 8221,
      "▁unhapp": 8222,
      "loy": 8223,
      "ви.\n": 8224,
      "дь.\n": 8225,
      "ёр.\n": 8226,
      "omp": 8227,
      "▁wound": 8228,
      "▁неда": 8229,
      "▁мяс": 8230,
      "▁pu": 8231,
      "▁pou": 8232,
      "▁экс": 8233,
      "▁идио": 8234,
      "▁beat": 8235,
      "▁заключ": 8236,
      "▁washing": 8237,
      "лаб": 8238,
      "▁ними": 8239,
      "ше?\n": 8240,
      "act.\n": 8241,
      "ким": 8242,
      "istic.\n": 8243,
      "сот": 8244,
      "▁пива.\n": 8245,
      "▁дедуш": 8246,
      "▁hopes": 8247,
      "нтересо": 8248,
      "▁opt": 8249,
      "ствие.\n": 8250,
      "▁мире": 8251,
      "▁politic": 8252,
      "ник?\n": 8253,
      "вяз": 8254,
      "▁выходить": 8255,
      "▁painting": 8256,
      "▁звон": 8257,
      "▁бага": 8258,
      "▁случайно": 8259,
      "▁узнать,": 8260,
      "▁мальчик.\n": 8261,
      "▁присут": 8262,
      "▁horse": 8263,
      "▁horse.\n": 8264,
      "▁правильно": 8265,
      "▁телефона.\n": 8266,
      "▁absent": 8267,
      "▁преподава": 8268,
      "▁отношения": 8269,
      "▁зонтик.\n": 8270,
      "▁radio": 8271,
      "▁abroad.\n": 8272,
      "▁sugar": 8273,
      "▁по-английски.\n": 8274,
      "▁bridge": 8275,
      "▁publ": 8276,
      "▁неуда": 8277,
      "▁talent": 8278,
      "▁document": 8279,
      "ray": 8280,
      "дж": 8281,
      "ев.\n": 8282,
      "рет.\n": 8283,
      "▁9": 8284,
      "▁скажи": 8285,
      "▁нечто": 8286,
      "▁поис": 8287,
      "▁повед": 8288,
      "▁оско": 8289,
      "▁зву": 8290,
      "▁pill": 8291,
      "▁thie": 8292,
      "нец.\n": 8293,
      "▁бывал": 8294,
      "▁hero": 8295,
      "▁either": 8296,
      "▁weap": 8297,
      "icag": 8298,
      "als": 8299,
      "▁We'd": 8300,
      "▁ведёт": 8301,
      "il.\n": 8302,
      "▁Чика": 8303,
      "▁сесть": 8304,
      "▁видела": 8305,
      "▁says.\n": 8306,
      "▁чуде": 8307,
      "ations.\n": 8308,
      "▁недели": 8309,
      "▁голос.\n": 8310,
      "▁killed.\n": 8311,
      "▁идея": 8312,
      "▁thirty.\n": 8313,
      "▁Chicag": 8314,
      "сажи": 8315,
      "▁заставля": 8316,
      "▁air.\n": 8317,
      "▁laughing.\n": 8318,
      "▁Японии.\n": 8319,
      "▁поймал": 8320,
      "▁читает": 8321,
      "▁украли": 8322,
      "▁different.\n": 8323,
      "▁сложно.\n": 8324,
      "▁American": 8325,
      "▁library": 8326,
      "▁рома": 8327,
      "▁здоровь": 8328,
      "▁спасти": 8329,
      "▁Увидимся": 8330,
      "cut": 8331,
      "us.\n": 8332,
      "дом": 8333,
      "▁сдал": 8334,
      "▁чт": 8335,
      "▁чис": 8336,
      "рич": 8337,
      "▁fit": 8338,
      "▁Ме": 8339,
      "▁pos": 8340,
      "▁pain.\n": 8341,
      "▁управ": 8342,
      "коль": 8343,
      "▁ho": 8344,
      "▁Обычно": 8345,
      "ваш": 8346,
      "▁Эту": 8347,
      "▁Эй,": 8348,
      "▁сос": 8349,
      "▁note": 8350,
      "▁боли": 8351,
      "▁Sp": 8352,
      "▁новой": 8353,
      "▁lead": 8354,
      "▁plenty": 8355,
      "▁ката": 8356,
      "▁старый": 8357,
      "▁offer.\n": 8358,
      "▁Вами": 8359,
      "ранцузский": 8360,
      "▁школы": 8361,
      "▁Лу": 8362,
      "▁understands": 8363,
      "▁забыл.\n": 8364,
      "▁готовы.\n": 8365,
      "▁красивый": 8366,
      "▁coffee?\n": 8367,
      "▁кофе?\n": 8368,
      "▁смеяться.\n": 8369,
      "▁плохо.\n": 8370,
      "▁улицу.\n": 8371,
      "▁устал": 8372,
      "▁invite": 8373,
      "▁light.\n": 8374,
      "▁солне": 8375,
      "▁enter": 8376,
      "▁классе": 8377,
      "▁building.\n": 8378,
      "▁admitted": 8379,
      "▁утро.\n": 8380,
      "▁realize": 8381,
      "▁понедельника": 8382,
      "▁point.\n": 8383,
      "▁beginning": 8384,
      "▁посуду.\n": 8385,
      "▁totally": 8386,
      "▁poured": 8387,
      "pen": 8388,
      "pe.\n": 8389,
      "ь?\n": 8390,
      "▁нём": 8391,
      "▁Трудно": 8392,
      "▁mas": 8393,
      "▁член": 8394,
      "▁corn": 8395,
      "▁бро": 8396,
      "нок": 8397,
      "▁холо": 8398,
      "▁принимать": 8399,
      "▁лж": 8400,
      "▁лет,": 8401,
      "▁соз": 8402,
      "ну,": 8403,
      "▁Ты,": 8404,
      "▁большие": 8405,
      "▁Tom's.\n": 8406,
      "▁мар": 8407,
      "ists": 8408,
      "▁купил.\n": 8409,
      "▁вернулся.\n": 8410,
      "▁buy?\n": 8411,
      "▁buying": 8412,
      "▁нравится?\n": 8413,
      "▁oper": 8414,
      "▁искус": 8415,
      "▁дорога": 8416,
      "▁умр": 8417,
      "▁Ваши": 8418,
      "▁остановить": 8419,
      "▁choice": 8420,
      "▁Французский": 8421,
      "▁own.\n": 8422,
      "▁horri": 8423,
      "▁elev": 8424,
      "▁попыт": 8425,
      "▁certainly": 8426,
      "▁course": 8427,
      "▁propos": 8428,
      "▁smarter": 8429,
      "▁немедленно": 8430,
      "▁disappointed.\n": 8431,
      "▁fresh": 8432,
      "▁Учитель": 8433,
      "▁университе": 8434,
      "dle": 8435,
      "per": 8436,
      "р?\n": 8437,
      "▁дали": 8438,
      "работ": 8439,
      "▁пошла": 8440,
      "▁бле": 8441,
      "▁напро": 8442,
      "▁наступ": 8443,
      "▁выс": 8444,
      "лаг": 8445,
      "▁we'd": 8446,
      "тими": 8447,
      "▁достаточно.\n": 8448,
      "▁сон.\n": 8449,
      "▁созна": 8450,
      "▁yours?\n": 8451,
      "▁See": 8452,
      "▁What'll": 8453,
      "▁люди.\n": 8454,
      "етесь.\n": 8455,
      "▁вино": 8456,
      "▁up,": 8457,
      "▁подготов": 8458,
      "olve": 8459,
      "щим": 8460,
      "ятся.\n": 8461,
      "▁работы": 8462,
      "имся": 8463,
      "▁случив": 8464,
      "▁handle": 8465,
      "▁книга.\n": 8466,
      "▁morning?\n": 8467,
      "▁ches": 8468,
      "▁сына": 8469,
      "▁игру": 8470,
      "▁семьё": 8471,
      "▁поговорить?\n": 8472,
      "▁вернусь.\n": 8473,
      "▁опоздал.\n": 8474,
      "▁support": 8475,
      "▁октября": 8476,
      "▁обращ": 8477,
      "▁компьютер.\n": 8478,
      "▁dressed": 8479,
      "▁ребёнок": 8480,
      "▁message.\n": 8481,
      "▁yourself?\n": 8482,
      "▁расстроен.\n": 8483,
      "▁success.\n": 8484,
      "▁popular": 8485,
      "▁продолжал": 8486,
      "▁climb": 8487,
      "▁лекарство": 8488,
      "▁сожале": 8489,
      "▁нервнича": 8490,
      "▁body": 8491,
      "▁Время": 8492,
      "▁Автобу": 8493,
      "▁Sometimes": 8494,
      "over": 8495,
      "ointed": 8496,
      "крат": 8497,
      "лем": 8498,
      "плы": 8499,
      "тся": 8500,
      "ывать": 8501,
      "▁поу": 8502,
      "▁потря": 8503,
      "▁укус": 8504,
      "▁быть.\n": 8505,
      "дайте": 8506,
      "▁beach": 8507,
      "▁еду.\n": 8508,
      "▁мото": 8509,
      "▁яи": 8510,
      "▁проче": 8511,
      "▁stick": 8512,
      "▁год.\n": 8513,
      "▁добав": 8514,
      "▁приду": 8515,
      "▁знаете.\n": 8516,
      "▁лу": 8517,
      "riger": 8518,
      "дим.\n": 8519,
      "▁водитель": 8520,
      "▁Дела": 8521,
      "▁rang": 8522,
      "▁подруг": 8523,
      "▁tells": 8524,
      "▁хорошую": 8525,
      "▁сказала,": 8526,
      "▁перео": 8527,
      "▁вариан": 8528,
      "▁come?\n": 8529,
      "vented": 8530,
      "▁player.\n": 8531,
      "▁Никому": 8532,
      "▁Австралию": 8533,
      "дёшь": 8534,
      "▁время?\n": 8535,
      "▁обещал": 8536,
      "▁человека.\n": 8537,
      "▁пойма": 8538,
      "▁before?\n": 8539,
      "▁Хотел": 8540,
      "▁парке.\n": 8541,
      "▁умнее": 8542,
      "▁дети.\n": 8543,
      "▁написа": 8544,
      "▁брата": 8545,
      "▁планируете": 8546,
      "▁мужчина": 8547,
      "▁refriger": 8548,
      "▁право": 8549,
      "▁уроки.\n": 8550,
      "летряс": 8551,
      "▁канадц": 8552,
      "▁телефону.\n": 8553,
      "▁радио": 8554,
      "▁смотрю": 8555,
      "▁magaz": 8556,
      "▁teeth": 8557,
      "▁невероят": 8558,
      "▁рыбалку.\n": 8559,
      "▁profess": 8560,
      "▁Two": 8561,
      "eared": 8562,
      "hood.\n": 8563,
      "pt": 8564,
      "дем": 8565,
      "шен": 8566,
      "ёте?\n": 8567,
      "▁4": 8568,
      "▁скажите": 8569,
      "▁Та": 8570,
      "▁bored.\n": 8571,
      "▁опера": 8572,
      "нок.\n": 8573,
      "▁low": 8574,
      "▁наше": 8575,
      "▁нашла": 8576,
      "нер": 8577,
      "▁Покажите": 8578,
      "▁need?\n": 8579,
      "▁spr": 8580,
      "вал?\n": 8581,
      "▁слё": 8582,
      "солю": 8583,
      "iew": 8584,
      "▁view": 8585,
      "▁fright": 8586,
      "▁new.\n": 8587,
      "ortun": 8588,
      "▁\"N": 8589,
      "▁ху": 8590,
      "▁жесто": 8591,
      "▁бесплат": 8592,
      "▁форм": 8593,
      "▁дома,": 8594,
      "▁надеяться,": 8595,
      "▁глав": 8596,
      "▁приходить.\n": 8597,
      "▁держал": 8598,
      "▁отлича": 8599,
      "▁отлично": 8600,
      "▁начинаю": 8601,
      "етесь?\n": 8602,
      "▁alone?\n": 8603,
      "▁столе.\n": 8604,
      "▁уехал.\n": 8605,
      "ялись.\n": 8606,
      "▁какие-то": 8607,
      "▁пригласил": 8608,
      "▁eggs.\n": 8609,
      "видно,": 8610,
      "▁терпели": 8611,
      "▁apartment.\n": 8612,
      "▁prepared": 8613,
      "▁Пусть": 8614,
      "▁motor": 8615,
      "▁докумен": 8616,
      "lcome": 8617,
      "bil": 8618,
      "under": 8619,
      "▁8": 8620,
      "▁ed": 8621,
      "▁wit": 8622,
      "▁вп": 8623,
      "▁поним": 8624,
      "▁cause": 8625,
      "▁lim": 8626,
      "▁удоб": 8627,
      "▁em": 8628,
      "▁emb": 8629,
      "вают.\n": 8630,
      "▁und": 8631,
      "▁прожил": 8632,
      "▁знают.\n": 8633,
      "▁Попро": 8634,
      "ению.\n": 8635,
      "▁Sha": 8636,
      "вим": 8637,
      "akes.\n": 8638,
      "▁больше.\n": 8639,
      "▁думаю": 8640,
      "▁spo": 8641,
      "ческий": 8642,
      "▁он.\n": 8643,
      "▁noise.\n": 8644,
      "▁from?\n": 8645,
      "ставь": 8646,
      "▁drug": 8647,
      "▁женился": 8648,
      "▁optim": 8649,
      "▁усер": 8650,
      "▁работаю.\n": 8651,
      "▁взяли": 8652,
      "▁начать": 8653,
      "ться?\n": 8654,
      "▁cats.\n": 8655,
      "▁имею": 8656,
      "▁скажу.\n": 8657,
      "▁singing.\n": 8658,
      "▁молока.\n": 8659,
      "▁месяц": 8660,
      "▁держать": 8661,
      "▁smoking": 8662,
      "▁trees": 8663,
      "▁translate": 8664,
      "▁vacation.\n": 8665,
      "▁behavi": 8666,
      "▁аварии.\n": 8667,
      "▁camera": 8668,
      "▁сожалению,": 8669,
      "▁небольшо": 8670,
      "▁apologize.\n": 8671,
      "▁разозл": 8672,
      "ses": 8673,
      "дра": 8674,
      "жали": 8675,
      "ой": 8676,
      "фе": 8677,
      "▁пам": 8678,
      "▁смен": 8679,
      "▁некото": 8680,
      "ond.\n": 8681,
      "▁пользоваться": 8682,
      "▁cab": 8683,
      "ork": 8684,
      "▁power": 8685,
      "ко,": 8686,
      "▁hired": 8687,
      "▁быв": 8688,
      "ats": 8689,
      "▁рай": 8690,
      "▁продал": 8691,
      "▁want?\n": 8692,
      "▁this,": 8693,
      "irc": 8694,
      "oney": 8695,
      "▁фер": 8696,
      "▁подня": 8697,
      "▁столи": 8698,
      "▁French,": 8699,
      "own.\n": 8700,
      "▁видели.\n": 8701,
      "▁winter": 8702,
      "ница.\n": 8703,
      "▁домой,": 8704,
      "▁начала": 8705,
      "▁слово.\n": 8706,
      "▁открыты": 8707,
      "▁easily.\n": 8708,
      "▁ответствен": 8709,
      "▁спорт": 8710,
      "▁married?\n": 8711,
      "▁груп": 8712,
      "▁считаю": 8713,
      "▁students.\n": 8714,
      "▁pictures.\n": 8715,
      "▁followed": 8716,
      "▁проводить": 8717,
      "▁smiled": 8718,
      "▁полицию.\n": 8719,
      "▁компьюте": 8720,
      "▁опоздает.\n": 8721,
      "▁одолжил": 8722,
      "▁покупать": 8723,
      "▁quiet.\n": 8724,
      "▁engine": 8725,
      "▁замужем.\n": 8726,
      "▁green": 8727,
      "▁midn": 8728,
      "▁страшно.\n": 8729,
      "▁dirty.\n": 8730,
      "▁отриц": 8731,
      "▁furnit": 8732,
      "▁Проблема": 8733,
      "ces": 8734,
      "мей": 8735,
      "ый.\n": 8736,
      "ом,": 8737,
      "▁won.\n": 8738,
      "▁наруш": 8739,
      "arm": 8740,
      "навли": 8741,
      "воз": 8742,
      "▁Their": 8743,
      "ical.\n": 8744,
      "▁проч": 8745,
      "▁знамен": 8746,
      "ries.\n": 8747,
      "▁делали.\n": 8748,
      "▁как-нибудь": 8749,
      "▁стала": 8750,
      "▁спаль": 8751,
      "будь.\n": 8752,
      "▁переры": 8753,
      "-нибудь.\n": 8754,
      "▁clock": 8755,
      "▁Идите": 8756,
      "▁верю": 8757,
      "▁пиво": 8758,
      "▁пиво.\n": 8759,
      "▁завтрак": 8760,
      "▁работает?\n": 8761,
      "▁играют": 8762,
      "▁вопросов": 8763,
      "▁feels": 8764,
      "▁poor.\n": 8765,
      "▁выглядишь": 8766,
      "▁написать": 8767,
      "▁учителем.\n": 8768,
      "▁оптими": 8769,
      "▁разреша": 8770,
      "▁ближай": 8771,
      "▁стороны": 8772,
      "▁discussed": 8773,
      "▁рыбу.\n": 8774,
      "▁перестать": 8775,
      "▁chair.\n": 8776,
      "▁stolen.\n": 8777,
      "▁jumped": 8778,
      "▁пытались": 8779,
      "▁выучить": 8780,
      "▁suddenly": 8781,
      "▁Держи": 8782,
      "▁caused": 8783,
      "▁volun": 8784,
      "▁бутербро": 8785,
      "зы.\n": 8786,
      "ромо": 8787,
      "▁Tom.": 8788,
      "▁неиз": 8789,
      "▁чрез": 8790,
      "▁офици": 8791,
      "▁curi": 8792,
      "▁напомина": 8793,
      "нах.\n": 8794,
      "них": 8795,
      "▁замен": 8796,
      "▁equ": 8797,
      "▁провести": 8798,
      "▁meant": 8799,
      "▁reached": 8800,
      "▁have.\n": 8801,
      "дите.\n": 8802,
      "▁Help": 8803,
      "▁asha": 8804,
      "▁susp": 8805,
      "ained": 8806,
      "чив.\n": 8807,
      "▁noise": 8808,
      "▁could.\n": 8809,
      "▁смогла": 8810,
      "▁куплю": 8811,
      "▁цвет.\n": 8812,
      "▁dog?\n": 8813,
      "▁guest": 8814,
      "▁живём": 8815,
      "▁совет.\n": 8816,
      "итесь.\n": 8817,
      "▁готовит": 8818,
      "▁attract": 8819,
      "▁счастливы": 8820,
      "▁single": 8821,
      "▁саду": 8822,
      "▁передум": 8823,
      "▁sli": 8824,
      "▁eye": 8825,
      "▁sooner": 8826,
      "▁полотен": 8827,
      "▁фотографию": 8828,
      "▁words.\n": 8829,
      "▁Говори": 8830,
      "▁Прости,": 8831,
      "▁tennis.\n": 8832,
      "▁leg.\n": 8833,
      "▁suggested": 8834,
      "▁рубашку.\n": 8835,
      "▁burned": 8836,
      "▁выяснить,": 8837,
      "▁belongs": 8838,
      "▁opportun": 8839,
      "▁противо": 8840,
      "▁абсолю": 8841,
      "▁множество": 8842,
      "?»": 8843,
      "x.\n": 8844,
      "где": 8845,
      "ме.\n": 8846,
      "следо": 8847,
      "ши.\n": 8848,
      "шу.\n": 8849,
      "▁ль": 8850,
      "▁сдать": 8851,
      "▁сомн": 8852,
      "▁кас": 8853,
      "стить": 8854,
      "▁gas": 8855,
      "▁threat": 8856,
      "ней.\n": 8857,
      "дар": 8858,
      "вание.\n": 8859,
      "лаго": 8860,
      "▁протя": 8861,
      "▁Yester": 8862,
      "▁низ": 8863,
      "▁отдал": 8864,
      "▁сказали?\n": 8865,
      "стая": 8866,
      "▁разу": 8867,
      "▁геро": 8868,
      "ряж": 8869,
      "▁канику": 8870,
      "исте": 8871,
      "▁nois": 8872,
      "▁happens.\n": 8873,
      "▁распо": 8874,
      "▁intell": 8875,
      "used.\n": 8876,
      "▁жениться.\n": 8877,
      "▁испу": 8878,
      "▁комната": 8879,
      "▁father's": 8880,
      "▁сига": 8881,
      "▁похоро": 8882,
      "▁беспокой": 8883,
      "▁письмен": 8884,
      "▁подарок": 8885,
      "▁keeps": 8886,
      "▁сахар": 8887,
      "▁произошло?\n": 8888,
      "▁спросил,": 8889,
      "▁объяснить.\n": 8890,
      "димся.\n": 8891,
      "нём.\n": 8892,
      "▁order.\n": 8893,
      "▁солда": 8894,
      "▁книгу,": 8895,
      "▁цветы": 8896,
      "▁занимается": 8897,
      "▁магазин": 8898,
      "▁писать.\n": 8899,
      "▁windows": 8900,
      "▁ticket.\n": 8901,
      "▁мнение.\n": 8902,
      "▁following": 8903,
      "▁escape.\n": 8904,
      "▁popul": 8905,
      "▁имел,": 8906,
      "▁camera.\n": 8907,
      "казатель": 8908,
      "▁бейсбол.\n": 8909,
      "▁сердце.\n": 8910,
      "▁cream.\n": 8911,
      "▁французскому.\n": 8912,
      "▁велел": 8913,
      "▁potato": 8914,
      "▁holid": 8915,
      "▁boring.\n": 8916,
      "▁останусь": 8917,
      "▁талант": 8918,
      "запно": 8919,
      "▁urg": 8920,
      "▁худож": 8921,
      "▁профес": 8922,
      "▁оскор": 8923,
      "▁Yesterday": 8924,
      "den": 8925,
      "led.\n": 8926,
      "sit": 8927,
      "вел": 8928,
      "▁сначала": 8929,
      "▁дро": 8930,
      "▁двое": 8931,
      "рах": 8932,
      "▁покры": 8933,
      "▁circ": 8934,
      "нори": 8935,
      "▁fat.\n": 8936,
      "коре": 8937,
      "▁забл": 8938,
      "▁запре": 8939,
      "ets": 8940,
      "ваете": 8941,
      "alth": 8942,
      "▁Дру": 8943,
      "▁rum": 8944,
      "▁needed.\n": 8945,
      "▁How's": 8946,
      "▁look.\n": 8947,
      "▁happening": 8948,
      "▁Ан": 8949,
      "▁eating.\n": 8950,
      "▁coinc": 8951,
      "▁rock": 8952,
      "▁butter": 8953,
      "▁stuck": 8954,
      "▁adop": 8955,
      "▁занят,": 8956,
      "ница": 8957,
      "▁школь": 8958,
      "▁impro": 8959,
      "▁пойду.\n": 8960,
      "▁собираемся": 8961,
      "▁окно": 8962,
      "▁shoot": 8963,
      "▁самого": 8964,
      "▁чай.\n": 8965,
      "▁promis": 8966,
      "▁семья": 8967,
      "▁door?\n": 8968,
      "держать": 8969,
      "▁езжу": 8970,
      "валась": 8971,
      "▁нашем": 8972,
      "▁солг": 8973,
      "▁forever.\n": 8974,
      "▁яблоко.\n": 8975,
      "▁Будьте": 8976,
      "▁ключи.\n": 8977,
      "▁кино.\n": 8978,
      "▁уехать.\n": 8979,
      "▁слушать": 8980,
      "▁секрет.\n": 8981,
      "▁уходить.\n": 8982,
      "▁together?\n": 8983,
      "▁recognized": 8984,
      "▁bright": 8985,
      "▁artic": 8986,
      "▁матери.\n": 8987,
      "▁earthqu": 8988,
      "▁chocolate": 8989,
      "▁innocent.\n": 8990,
      "▁проголо": 8991,
      "▁заблуд": 8992,
      "-l": 8993,
      "ial": 8994,
      "uc": 8995,
      "лом.\n": 8996,
      "фу": 8997,
      "чной": 8998,
      "щему": 8999,
      "▁tie.\n": 9000,
      "ра?\n": 9001,
      "▁cast": 9002,
      "▁pant": 9003,
      "▁указ": 9004,
      "▁ходили": 9005,
      "▁stamp": 9006,
      "key": 9007,
      "▁reach": 9008,
      "▁гон": 9009,
      "▁приезжа": 9010,
      "жно,": 9011,
      "▁suic": 9012,
      "под": 9013,
      "▁разум": 9014,
      "▁going?\n": 9015,
      "▁винов": 9016,
      "▁всём": 9017,
      "люча": 9018,
      "▁поддержи": 9019,
      "ages.\n": 9020,
      "чайно": 9021,
      "▁перевод": 9022,
      "▁herself.\n": 9023,
      "цион": 9024,
      "▁cloud": 9025,
      "▁делают": 9026,
      "▁слег": 9027,
      "ствие": 9028,
      "▁swear": 9029,
      "▁grate": 9030,
      "▁остались": 9031,
      "▁позвоню": 9032,
      "▁now,": 9033,
      "▁poem": 9034,
      "▁совпад": 9035,
      "▁скаже": 9036,
      "▁молоко.\n": 9037,
      "телем": 9038,
      "▁куда-нибудь": 9039,
      "▁весьма": 9040,
      "дцати.\n": 9041,
      "▁болез": 9042,
      "▁feelings.\n": 9043,
      "клады": 9044,
      "▁видели,": 9045,
      "▁ребёнка.\n": 9046,
      "▁illeg": 9047,
      "▁отвечать": 9048,
      "▁успеш": 9049,
      "▁выключил": 9050,
      "▁boss.\n": 9051,
      "▁покое.\n": 9052,
      "▁impossible.\n": 9053,
      "▁syst": 9054,
      "▁ботинки.\n": 9055,
      "▁Tokyo": 9056,
      "▁Одна": 9057,
      "▁впервые": 9058,
      "▁passport": 9059,
      "▁thirsty.\n": 9060,
      "▁самостоятельно.\n": 9061,
      "▁cigare": 9062,
      "▁чудес": 9063,
      "▁intellig": 9064,
      "-f": 9065,
      "ces.\n": 9066,
      "ША": 9067,
      "драв": 9068,
      "▁сим": 9069,
      "▁Три": 9070,
      "▁dam": 9071,
      "▁map": 9072,
      "▁дала": 9073,
      "▁побли": 9074,
      "рия": 9075,
      "▁last.\n": 9076,
      "▁наказ": 9077,
      "ета": 9078,
      "кор": 9079,
      "вобо": 9080,
      "▁хоть": 9081,
      "▁выж": 9082,
      "дей": 9083,
      "▁steal": 9084,
      "▁знают": 9085,
      "▁США": 9086,
      "uts.\n": 9087,
      "▁seat.\n": 9088,
      "ры?\n": 9089,
      "▁What're": 9090,
      "▁говорите.\n": 9091,
      "▁больш": 9092,
      "▁шу": 9093,
      "▁места.\n": 9094,
      "ми,": 9095,
      "▁верёв": 9096,
      "▁drown": 9097,
      "▁Of": 9098,
      "▁дав": 9099,
      "ные?\n": 9100,
      "▁исключ": 9101,
      "▁успоко": 9102,
      "▁остан": 9103,
      "дём.\n": 9104,
      "▁appoint": 9105,
      "▁перчат": 9106,
      "▁easier": 9107,
      "▁question?\n": 9108,
      "крати": 9109,
      "▁mistakes": 9110,
      "▁else?\n": 9111,
      "▁hung": 9112,
      "бий": 9113,
      "▁вечером?\n": 9114,
      "▁resc": 9115,
      "пустить": 9116,
      "▁большое": 9117,
      "▁keys": 9118,
      "▁parked": 9119,
      "ёнок": 9120,
      "▁танцу": 9121,
      "▁perfect.\n": 9122,
      "▁любопыт": 9123,
      "▁экзамен": 9124,
      "▁truth?\n": 9125,
      "▁кухне.\n": 9126,
      "▁dictionary": 9127,
      "▁стараюсь": 9128,
      "▁Девуш": 9129,
      "▁electric": 9130,
      "▁другую": 9131,
      "▁treated": 9132,
      "▁abroad": 9133,
      "▁pocket.\n": 9134,
      "▁нормально.\n": 9135,
      "чки": 9136,
      "▁$": 9137,
      "▁ся": 9138,
      "▁вёл": 9139,
      "▁зимо": 9140,
      "▁huge": 9141,
      "ним.\n": 9142,
      "ника.\n": 9143,
      "ников.\n": 9144,
      "▁идёт.\n": 9145,
      "▁заво": 9146,
      "ло,": 9147,
      "ерк": 9148,
      "ваешь": 9149,
      "ics.\n": 9150,
      "▁прошёл": 9151,
      "▁согла": 9152,
      "▁сохра": 9153,
      "▁боится.\n": 9154,
      "▁allerg": 9155,
      "▁Boston,": 9156,
      "▁out?\n": 9157,
      "▁Наши": 9158,
      "ield": 9159,
      "▁const": 9160,
      "▁вашим": 9161,
      "▁Давно": 9162,
      "▁offer": 9163,
      "▁Конечно,": 9164,
      "▁ourselves.\n": 9165,
      "▁твоём": 9166,
      "▁решение": 9167,
      "▁blind": 9168,
      "▁blank": 9169,
      "▁blue.\n": 9170,
      "щей.\n": 9171,
      "дёж": 9172,
      "▁Ло": 9173,
      "разд": 9174,
      "▁бесполез": 9175,
      "▁Жен": 9176,
      "▁суб": 9177,
      "▁закрыть": 9178,
      "▁means": 9179,
      "▁дверь,": 9180,
      "▁laughing": 9181,
      "▁movies.\n": 9182,
      "▁выиграет.\n": 9183,
      "▁salt": 9184,
      "▁Полицей": 9185,
      "▁волосы": 9186,
      "▁других": 9187,
      "▁пьян.\n": 9188,
      "▁Реб": 9189,
      "▁сработ": 9190,
      "▁concert.\n": 9191,
      "▁бутылку": 9192,
[...]
